[UNK]	0
<s>	0
</s>	0
+	0
[SOS]	0
[EOS]	0
[CLS]	0
[SEP]	0
[MASK]	0
0	0
1	0
2	0
3	0
4	0
5	0
6	0
7	0
8	0
9	0
▁	-0.813482
▁는	-4.21329
▁을	-4.24876
▁의	-4.34951
▁다	-4.41358
하	-4.55513
▁이	-4.61486
▁에	-4.68938
▁은	-4.69019
▁고	-4.76449
이	-4.89671
▁를	-4.90738
▁가	-4.92133
▁있	-4.99499
한	-5.04492
▁으로	-5.58341
▁게	-5.63862
▁그	-5.69625
▁것	-5.72605
▁에서	-5.78119
▁도	-5.82901
되	-5.90117
해	-5.9032
▁과	-5.97258
들	-5.98611
▁로	-6.00525
인	-6.04596
▁수	-6.05819
▁지	-6.09486
▁었다	-6.10424
했	-6.12415
지	-6.17495
▁어	-6.1932
할	-6.21206
▁나	-6.2542
▁와	-6.29759
▁않	-6.30388
▁없	-6.3314
자	-6.39407
라	-6.39549
▁서	-6.40544
기	-6.40692
▁것이	-6.49173
사	-6.55037
된	-6.56661
가	-6.59289
▁면	-6.65903
시	-6.67451
도	-6.71944
적	-6.75836
대	-6.77321
▁기	-6.7747
수	-6.79295
▁아	-6.80266
성	-6.84442
일	-6.85412
▁내	-6.87044
▁아니	-6.87603
▁보	-6.89578
▁말	-6.90445
▁일	-6.90566
▁때	-6.90761
▁등	-6.93383
▁다는	-6.93422
▁우리	-6.93608
장	-6.93617
다	-6.94143
▁며	-6.94756
▁같	-6.96576
부	-7.03089
▁여	-7.03254
▁던	-7.03736
구	-7.05464
▁야	-7.06963
▁에는	-7.07511
▁사람	-7.11089
고	-7.12814
의	-7.16075
▁년	-7.17711
▁에게	-7.17803
▁만	-7.19833
리	-7.21791
비	-7.21874
나	-7.22238
진	-7.2306
▁다고	-7.23328
▁안	-7.24546
주	-7.25599
전	-7.26692
보	-7.27119
▁생각	-7.27304
원	-7.27555
상	-7.27625
▁운	-7.29494
▁았다	-7.29537
정	-7.30483
화	-7.31609
▁그러나	-7.31908
로	-7.3442
치	-7.34866
히	-7.36574
제	-7.36665
산	-7.36709
서	-7.39089
적인	-7.3945
간	-7.4167
▁지만	-7.42551
동	-7.43798
미	-7.43993
▁면서	-7.44192
소	-7.44674
입	-7.45127
▁두	-7.46332
▁이나	-7.46444
선	-7.47392
▁까지	-7.47718
어	-7.48313
▁대한	-7.48909
문	-7.48916
조	-7.5228
▁주	-7.54527
▁알	-7.55079
▁라고	-7.56205
▁데	-7.56232
▁그것	-7.57156
▁또	-7.57361
▁는데	-7.58386
스	-7.58605
▁더	-7.59803
방	-7.61999
였	-7.62322
난	-7.62717
▁많	-7.6306
▁그런	-7.6317
물	-7.63491
▁그리고	-7.63559
▁처럼	-7.63646
면	-7.65071
오	-7.6657
될	-7.7026
▁위해	-7.70523
유	-7.70848
는	-7.71112
▁사람들	-7.71217
▁가지	-7.71819
▁때문	-7.71915
▁속	-7.7207
식	-7.72588
▁경우	-7.72736
연	-7.72994
만	-7.73492
실	-7.73929
▁좋	-7.74287
재	-7.75901
▁니다	-7.76021
단	-7.76245
▁라는	-7.76674
마	-7.77034
여	-7.79264
아	-7.80249
▁앞	-7.80396
니	-7.80494
▁살	-7.82
당	-7.82269
▁잘	-7.83098
세	-7.8312
▁하나	-7.83559
우	-7.83746
▁그렇	-7.83999
양	-7.84339
신	-7.84804
▁에서는	-7.85342
질	-7.85613
공	-7.85972
▁다른	-7.86233
법	-7.86396
요	-7.86586
무	-7.87162
▁그녀	-7.87253
▁자신	-7.87938
▁거	-7.87959
▁받	-7.89467
내	-7.89927
집	-7.90412
경	-7.90818
감	-7.91017
▁월	-7.91509
관	-7.9261
▁습니다	-7.93169
▁지금	-7.93335
▁전	-7.93408
파	-7.93558
▁개	-7.93816
▁이런	-7.94645
▁부터	-7.9478
란	-7.94799
씨	-7.95809
▁눈	-7.95962
▁문제	-7.96112
호	-7.96328
발	-7.96397
▁사실	-7.96983
▁보다	-7.97657
▁다시	-7.98028
▁중	-7.98322
차	-7.98339
형	-7.98502
▁뒤	-7.98979
▁한국	-7.99186
▁어서	-8.00553
▁자기	-8.01286
▁어떤	-8.01826
중	-8.01959
▁남	-8.03359
▁에도	-8.03713
함	-8.03765
안	-8.03962
심	-8.04254
용	-8.04324
▁따라	-8.05355
모	-8.05607
드	-8.05894
려	-8.06085
군	-8.06311
▁먹	-8.06389
국	-8.06706
▁오	-8.07522
▁였다	-8.08901
명	-8.0914
▁집	-8.09272
위	-8.0979
▁기도	-8.10292
생	-8.10313
회	-8.10543
영	-8.10759
▁인간	-8.11469
▁대해	-8.11636
야	-8.11704
▁사회	-8.11734
통	-8.12662
네	-8.12936
▁싶	-8.14106
▁시간	-8.14801
약	-8.15551
▁위	-8.15649
▁만들	-8.16927
때문이	-8.17195
▁저	-8.17453
계	-8.17844
권	-8.17906
받	-8.1809
▁정도	-8.18175
▁다면	-8.18412
▁모두	-8.18475
교	-8.19086
▁큰	-8.19189
▁미국	-8.19278
▁으며	-8.1978
▁가장	-8.20292
천	-8.20368
점	-8.20611
렸	-8.21144
▁으면	-8.21155
각	-8.21462
▁그들	-8.2265
분	-8.2357
금	-8.24741
▁걸	-8.25175
▁바	-8.25417
린	-8.25475
병	-8.25546
▁도록	-8.25838
▁줄	-8.26222
▁소리	-8.26309
▁후	-8.26312
▁모든	-8.26687
▁어느	-8.26988
▁다가	-8.27299
▁함께	-8.274
▁여기	-8.27519
종	-8.27718
▁는다	-8.27729
▁제	-8.27803
두	-8.28134
▁이제	-8.2851
▁명	-8.28582
▁다음	-8.29526
임	-8.29867
▁마음	-8.30017
학	-8.30289
길	-8.30385
거	-8.30417
▁세계	-8.32078
▁었던	-8.32465
별	-8.32525
▁쓰	-8.32917
거리	-8.33554
를	-8.34221
른	-8.34224
합	-8.34346
▁손	-8.34388
▁그러	-8.34601
▁못하	-8.34615
▁같이	-8.35347
▁말했	-8.35638
▁놓	-8.36084
날	-8.36361
▁갖	-8.36363
든	-8.36371
러	-8.36644
석	-8.37119
▁이러한	-8.37361
▁까	-8.378
▁이야기	-8.37861
▁어야	-8.37887
▁거나	-8.37904
▁일본	-8.38337
▁이상	-8.38599
▁못	-8.38812
▁바로	-8.39138
태	-8.39189
개	-8.39881
▁김	-8.4027
▁여자	-8.40719
▁그래서	-8.40984
▁어머니	-8.41079
속	-8.41536
▁의미	-8.42114
▁많이	-8.42183
▁통해	-8.42441
트	-8.42597
▁곳	-8.42875
▁및	-8.43397
반	-8.43403
▁얼굴	-8.4353
▁이렇	-8.44305
배	-8.4432
민	-8.446
판	-8.44765
▁새로	-8.4508
직	-8.45194
과	-8.45337
▁어떻	-8.45481
목	-8.45925
▁무엇	-8.46079
▁몸	-8.46505
▁요	-8.4668
▁볼	-8.46692
▁사이	-8.47023
역	-8.47643
온	-8.47694
추	-8.48388
▁몇	-8.48498
▁서울	-8.48806
르	-8.48854
▁필요	-8.4914
긴	-8.49451
색	-8.49638
▁찾	-8.49725
청	-8.50062
▁번	-8.50073
▁좀	-8.50267
체	-8.5116
▁말하	-8.51224
▁모르	-8.51441
▁서는	-8.51499
져	-8.51739
▁이것	-8.51782
시키	-8.51899
포	-8.52105
▁보이	-8.52766
력	-8.53271
▁불	-8.53416
은	-8.53675
친	-8.54051
에	-8.54124
창	-8.55238
강	-8.55326
▁처음	-8.55458
▁여러	-8.55489
▁동안	-8.55747
복	-8.55983
▁돈	-8.56
▁그런데	-8.56256
됐	-8.56284
▁사용	-8.5659
▁나라	-8.56783
▁길	-8.5754
▁특히	-8.57543
▁죽	-8.57684
▁위한	-8.57799
현	-8.57917
▁물론	-8.57948
▁열	-8.5832
▁아버지	-8.58649
▁높	-8.58869
타	-8.59002
▁왜	-8.59089
▁점	-8.59515
▁잡	-8.59516
급	-8.59847
말	-8.60081
달	-8.60316
▁맞	-8.60454
근	-8.60947
▁정부	-8.60955
운	-8.61087
▁힘	-8.61379
▁모습	-8.61437
▁본	-8.61733
▁니	-8.61965
불	-8.62011
을	-8.62021
▁물	-8.62061
왕	-8.62267
▁또는	-8.6227
▁모	-8.62475
행	-8.62497
돼	-8.62982
터	-8.63143
론	-8.63435
▁었고	-8.63805
▁얘기	-8.63833
▁아직	-8.63902
▁삶	-8.64081
순	-8.64175
▁차	-8.64179
▁듯	-8.64509
▁건	-8.64608
증	-8.64832
▁아이들	-8.64933
주의	-8.65233
▁또한	-8.65334
작	-8.65357
▁아닌	-8.65444
혀	-8.65469
▁신	-8.65653
음	-8.65837
▁즉	-8.65917
▁어디	-8.66236
났	-8.66738
▁여성	-8.66778
▁백	-8.67353
▁역사	-8.67406
있	-8.67512
겨	-8.6847
박	-8.68792
등	-8.68811
▁지난	-8.69166
며	-8.69468
▁이미	-8.70518
▁참	-8.70524
층	-8.71091
▁예	-8.71363
▁에서도	-8.71457
▁너무	-8.7148
크	-8.71888
▁세	-8.7225
평	-8.72346
갈	-8.72592
절	-8.72682
왔	-8.72703
▁학교	-8.72717
철	-8.73695
▁일이	-8.73783
쳐	-8.73808
설	-8.73894
▁나오	-8.74037
처	-8.7425
▁지도	-8.74417
량	-8.75184
▁연구	-8.75232
살	-8.75459
▁아이	-8.75696
출	-8.75871
▁시작	-8.76011
초	-8.76179
광	-8.76498
::	-8.76742
▁아무	-8.7746
▁세상	-8.77773
▁문화	-8.7789
▁이름	-8.78199
워	-8.78252
사회	-8.78603
▁더욱	-8.78723
▁나가	-8.78833
운동	-8.79335
▁현재	-8.79458
▁끝	-8.79573
없이	-8.79638
▁앉	-8.79746
토	-8.79871
▁남자	-8.79905
▁생활	-8.79954
피	-8.80075
▁달	-8.80469
▁밖에	-8.80476
▁무슨	-8.80515
▁이들	-8.80845
▁분	-8.81078
▁온	-8.81545
승	-8.81545
▁대학	-8.81592
표	-8.81603
▁뿐	-8.81789
▁읽	-8.82218
레	-8.82301
▁지는	-8.82416
편	-8.82433
▁따라서	-8.82572
▁이번	-8.82796
▁마다	-8.8286
▁었습니다	-8.82898
▁주장	-8.82982
디	-8.83039
▁얻	-8.83046
▁이유	-8.83118
건	-8.83181
침	-8.83287
▁교육	-8.83319
▁중국	-8.83345
남	-8.83711
래	-8.83739
▁서로	-8.8385
담	-8.83864
▁날	-8.83977
골	-8.84129
▁자연	-8.84236
그	-8.84786
▁그때	-8.85067
▁계속	-8.8525
▁이후	-8.85338
▁사랑	-8.85454
▁돌아	-8.85546
▁방법	-8.85783
▁외	-8.86314
▁관계	-8.8712
코	-8.87137
▁삼	-8.87157
▁채	-8.87176
▁애	-8.87535
▁크	-8.8778
▁내용	-8.87848
노	-8.88194
본	-8.88403
▁배	-8.88461
▁막	-8.88466
▁오늘	-8.88856
투	-8.89154
던	-8.89364
루	-8.89771
▁새	-8.89928
▁그래	-8.90008
류	-8.90066
결	-8.90123
백	-8.90205
▁존재	-8.90468
와	-8.90701
▁너	-8.90749
▁결과	-8.90952
환	-8.91315
▁왔	-8.91367
▁으로써	-8.91417
저	-8.9145
▁대로	-8.91464
▁니까	-8.91675
매	-8.92035
축	-8.92499
울	-8.92584
▁경제	-8.92691
▁가운데	-8.92981
▁역시	-8.93089
년	-8.93165
▁변화	-8.93509
▁국가	-8.93618
▁곧	-8.9365
품	-8.93791
채	-8.93859
▁거의	-8.94607
▁자리	-8.94677
▁책	-8.94682
▁정치	-8.94843
▁뭐	-8.95175
망	-8.95181
▁하지만	-8.95513
▁엔	-8.96376
▁것인	-8.96408
▁으로는	-8.96655
▁현실	-8.96724
▁어요	-8.96967
▁노	-8.97048
랑	-8.97139
▁표현	-8.97486
▁누구	-8.97529
▁으나	-8.97648
졌	-8.97713
▁영화	-8.97847
자들	-8.97966
릴	-8.98238
▁반	-8.98391
독	-8.98466
▁자체	-8.98558
▁거기	-8.98597
▁못한	-8.98854
▁아서	-8.98863
향	-8.99115
▁결국	-8.99169
▁보여	-8.99222
악	-8.99386
▁발전	-8.9946
▁만나	-8.99547
▁뜻	-8.99646
▁만큼	-8.99806
예	-8.99846
▁들어가	-8.99909
▁듣	-9.00317
▁먼저	-9.00337
키	-9.00711
▁말이	-9.00723
▁밤	-9.0076
새	-9.0077
카	-9.01214
프	-9.01628
▁지역	-9.01646
▁돌	-9.02319
▁타	-9.02521
▁는가	-9.03082
볼	-9.03147
▁머리	-9.03269
▁아주	-9.03514
▁천	-9.03557
바	-9.03606
▁박	-9.0365
업	-9.03655
▁당시	-9.04047
▁이루	-9.04113
시장	-9.04316
▁시대	-9.04485
▁듯이	-9.04552
게	-9.04571
▁려고	-9.04945
열	-9.05043
▁엄마	-9.05116
▁현대	-9.05451
격	-9.05835
▁중요한	-9.05847
칠	-9.05866
▁겠다	-9.05918
▁조금	-9.05992
▁없이	-9.06396
갔	-9.06698
▁작품	-9.06985
▁넣	-9.07026
막	-9.07176
▁로서	-9.07252
▁로부터	-9.07429
▁지나	-9.07812
데	-9.0786
▁최근	-9.07907
후	-9.07996
측	-9.08134
▁년대	-9.08243
▁기업	-9.08484
술	-9.08547
▁이해	-9.08724
봉	-9.08774
▁모양	-9.08778
준	-9.08788
▁떠	-9.08791
▁소설	-9.08891
▁당신	-9.09319
▁기로	-9.09484
▁글	-9.09511
▁아야	-9.09524
▁땅	-9.09579
▁한번	-9.096
▁얼마나	-9.09609
▁었는데	-9.09784
▁중심	-9.09904
▁상황	-9.1
런	-9.10164
▁대통령	-9.10187
▁남편	-9.10221
▁려는	-9.10635
쳤	-9.11317
▁친구	-9.11475
풍	-9.11531
▁관련	-9.11946
쪽	-9.1205
책	-9.12214
테	-9.12427
님	-9.13004
▁전체	-9.13011
▁북한	-9.13073
희	-9.13111
육	-9.13399
▁역할	-9.13421
▁문학	-9.13477
변	-9.13542
▁한편	-9.13607
어진	-9.13735
▁밖	-9.13842
▁초	-9.13879
▁피	-9.1392
▁요구	-9.13941
혔	-9.14003
료	-9.14227
암	-9.14276
▁그대로	-9.14419
▁기술	-9.14488
▁관심	-9.14718
▁대부분	-9.14725
돌	-9.14847
▁개인	-9.15183
패	-9.15781
▁웃	-9.1582
▁스스로	-9.15888
▁어려	-9.15955
▁못했	-9.16043
적이	-9.1615
▁숨	-9.16375
▁쉽	-9.16416
▁믿	-9.17042
▁잠	-9.17407
▁팔	-9.17551
스럽	-9.17894
▁는지	-9.17965
애	-9.18265
s	-9.18278
시작했	-9.18376
▁한테	-9.18458
버	-9.18731
곡	-9.18777
▁이용	-9.18802
▁자유	-9.18968
문화	-9.19049
낸	-9.19241
▁정말	-9.19246
▁그냥	-9.19296
▁사건	-9.19637
▁준	-9.19646
덕	-9.20126
탄	-9.20366
▁누	-9.20593
▁가슴	-9.20732
시켜	-9.21242
락	-9.2141
▁이르	-9.21442
탈	-9.21539
▁그림	-9.21804
▁상태	-9.21864
▁신문	-9.21984
▁일어나	-9.2203
▁더라도	-9.22165
▁국민	-9.22351
티	-9.22352
▁우선	-9.22516
교육	-9.22593
▁마치	-9.22702
▁죽음	-9.22867
▁쪽	-9.23137
▁정신	-9.23258
숙	-9.23398
▁아침	-9.23601
다가	-9.23924
▁결정	-9.24017
▁강	-9.24238
령	-9.24252
문학	-9.24345
▁오히려	-9.24354
▁의해	-9.24368
▁넘	-9.24425
▁민족	-9.24696
나무	-9.24809
▁대상	-9.24918
▁과정	-9.25167
▁결혼	-9.25323
▁을까	-9.25483
▁생산	-9.25507
▁정보	-9.25611
찬	-9.25705
▁관한	-9.25908
농	-9.26049
▁인식	-9.26058
극	-9.26174
답	-9.2625
▁꿈	-9.26342
롭	-9.26385
벌	-9.26392
▁세기	-9.2682
림	-9.26917
▁전화	-9.26917
▁아래	-9.27178
▁꼭	-9.27415
▁작	-9.27431
▁하늘	-9.27463
킨	-9.27853
▁뿐이	-9.27988
▁묻	-9.28039
O	-9.28259
힌	-9.28347
▁노력	-9.28357
▁었을	-9.28576
▁하루	-9.28917
▁최	-9.29266
▁이라고	-9.29293
▁부분	-9.29528
▁알려	-9.29531
꾸	-9.29543
쯤	-9.29559
▁바람	-9.2959
▁나타	-9.29863
▁말한	-9.3019
▁하고	-9.30309
메	-9.3047
▁직접	-9.30887
빛	-9.30907
먹	-9.31013
언	-9.31123
체제	-9.31154
▁환경	-9.31301
▁고는	-9.31302
▁선생님	-9.31373
▁언어	-9.3138
▁조선	-9.31602
▁놀	-9.31627
관계	-9.31654
▁낮	-9.31902
▁기를	-9.32004
▁혼자	-9.32267
▁언론	-9.32269
단체	-9.3241
▁노래	-9.32477
▁행동	-9.32529
▁아내	-9.3274
익	-9.3276
▁옆	-9.32827
▁생명	-9.32977
까	-9.33251
▁졌다	-9.33515
▁설명	-9.33583
▁대신	-9.33663
▁평가	-9.33685
▁일부	-9.33706
▁지적	-9.3387
삼	-9.33981
외	-9.341
취	-9.34194
▁기억	-9.34228
항	-9.34279
▁컴퓨터	-9.34327
소리	-9.34403
▁마련	-9.34437
겼	-9.34548
▁국내	-9.34629
손	-9.34765
▁순간	-9.34768
필	-9.34776
더	-9.35421
▁에게는	-9.35976
▁면서도	-9.36088
▁더니	-9.36203
▁구성	-9.36606
활동	-9.36607
인들	-9.36631
▁공부	-9.36642
기관	-9.36727
▁이란	-9.36993
▁영향	-9.37133
▁나타나	-9.37335
귀	-9.37386
글	-9.37396
월	-9.37562
▁혹은	-9.37582
시대	-9.37836
▁찾아	-9.38393
은행	-9.3863
▁매우	-9.38764
▁보였	-9.38876
▁었지만	-9.39198
줄	-9.39238
▁풀	-9.39494
죽	-9.3967
▁늘	-9.39861
▁귀	-9.39905
▁전혀	-9.39912
▁해결	-9.40091
▁가능성	-9.40183
율	-9.40205
▁발생	-9.40252
▁달리	-9.40305
▁으로부터	-9.40381
▁국제	-9.40445
▁그리	-9.40625
▁인정	-9.40671
▁맡	-9.40682
▁나온	-9.40696
같	-9.40716
▁바라보	-9.40726
▁현상	-9.40795
▁동시	-9.40814
▁목소리	-9.4083
슬	-9.40968
잡	-9.41087
름	-9.41127
▁과거	-9.41241
▁만든	-9.41454
▁참여	-9.41489
폐	-9.41555
▁활동	-9.41736
회의	-9.41817
▁형태	-9.41824
없	-9.42057
스러	-9.42318
▁기대	-9.42402
▁운동	-9.42575
번	-9.42812
의식	-9.43196
▁조사	-9.43332
▁것입	-9.43574
▁입장	-9.43592
▁반대	-9.43679
과정	-9.43685
▁기는	-9.43709
지도	-9.43749
▁나왔	-9.43781
▁느끼	-9.43904
낼	-9.43934
▁기에	-9.43972
▁그럼	-9.44104
▁가진	-9.44116
십	-9.44281
▁대답	-9.44643
▁신경	-9.44671
커	-9.44797
▁단순	-9.44969
틀	-9.45058
값	-9.45063
▁성격	-9.45102
옥	-9.45268
▁광고	-9.45277
▁차이	-9.45319
▁술	-9.45537
올	-9.45546
▁생각해	-9.45618
들이	-9.45699
▁발표	-9.45817
▁보다는	-9.45821
▁부르	-9.45903
▁경험	-9.4631
▁갈	-9.46338
▁허	-9.46381
문제	-9.46446
▁개발	-9.4649
▁옷	-9.4651
▁사회적	-9.46539
▁떠나	-9.4663
▁버리	-9.46829
▁아들	-9.46834
▁기록	-9.46845
▁으니	-9.4699
▁기능	-9.47154
▁봐	-9.4718
▁보내	-9.47286
립	-9.47309
▁나와	-9.47356
▁목적	-9.4739
▁진행	-9.47504
▁으로서	-9.47519
척	-9.47634
▁매	-9.47744
헌	-9.4775
갑	-9.47767
▁과는	-9.47815
▁고개	-9.48088
▁았던	-9.48238
▁확인	-9.48322
▁준비	-9.4837
▁어렵	-9.48427
착	-9.48487
씩	-9.48597
▁마을	-9.48601
▁담	-9.48731
▁제시	-9.48777
혼	-9.48979
▁방송	-9.49262
▁깊	-9.49304
총	-9.4935
▁예술	-9.49513
▁이렇게	-9.49526
▁학생들	-9.49857
▁울	-9.49916
즈	-9.50505
.	-9.50614
▁선택	-9.50923
▁교수	-9.50986
▁포함	-9.51071
▁어도	-9.51223
▁었다고	-9.51305
생활	-9.52116
▁갔	-9.52274
▁우리나라	-9.5229
▁계획	-9.52575
▁밑	-9.52582
▁근데	-9.52609
능	-9.52731
▁편	-9.52875
▁작가	-9.52895
e	-9.52928
족	-9.52962
▁시기	-9.53048
▁만이	-9.53165
냈	-9.53255
▁벌	-9.53265
▁학생	-9.53288
▁지방	-9.53349
▁사상	-9.53357
제도	-9.53444
▁K	-9.53456
▁써	-9.53477
▁었다는	-9.53724
▁갑자기	-9.53941
습	-9.54
▁발견	-9.54119
▁죠	-9.54123
▁라면	-9.54417
▁거야	-9.54435
퍼	-9.54455
쓰	-9.54478
▁그러한	-9.54722
짓	-9.54763
굴	-9.54828
▁강조	-9.54843
▁제대로	-9.54873
어져	-9.54964
팀	-9.54966
염	-9.54975
▁수준	-9.55273
▁다르	-9.55362
▁보인	-9.55567
▁사고	-9.55904
범	-9.56023
▁젊	-9.56114
▁도시	-9.5614
▁과의	-9.56158
▁마지막	-9.56376
▁회사	-9.5644
▁아무리	-9.56461
▁비롯	-9.56725
▁다니	-9.57193
▁표정	-9.57484
▁전쟁	-9.57515
▁개념	-9.57576
▁낳	-9.57824
북	-9.57947
밀	-9.5801
▁음을	-9.58301
▁얼마	-9.5832
▁고도	-9.5849
▁프로그램	-9.58523
▁조직	-9.58694
으로	-9.58856
▁통일	-9.58888
송	-9.59026
▁쓴	-9.59094
▁사진	-9.59222
▁대중	-9.59456
빠	-9.59473
겁	-9.59559
▁일반	-9.59665
▁확대	-9.59741
▁가정	-9.59744
▁므로	-9.60137
▁둘	-9.60168
▁잘못	-9.60214
놓	-9.60364
▁만을	-9.60435
▁상대	-9.60467
녀	-9.60475
▁따	-9.60565
▁느낌	-9.60826
T	-9.61014
▁가족	-9.61122
킬	-9.61309
퇴	-9.61356
페	-9.61497
▁증가	-9.61534
▁잖아	-9.61684
▁태도	-9.6169
▁음식	-9.61708
뜨	-9.61737
▁인사	-9.61819
▁깨	-9.61837
시간	-9.61862
구조	-9.62026
▁그럴	-9.62039
▁총	-9.62137
정부	-9.62298
▁지원	-9.62622
학교	-9.62661
라고	-9.62753
t	-9.62932
으며	-9.62966
▁훨씬	-9.63023
▁워	-9.63048
▁나이	-9.63246
▁책임	-9.63444
▁분석	-9.63603
정책	-9.63674
▁말해	-9.63795
▁고려	-9.63923
먼	-9.64037
▁요즘	-9.64106
▁억	-9.64177
▁주로	-9.64298
▁이루어	-9.6431
▁프랑스	-9.64312
▁달려	-9.64505
회장	-9.64551
▁넓	-9.64663
라도	-9.64723
▁특별	-9.64733
▁미래	-9.64748
▁판단	-9.64872
▁것들	-9.6501
오르	-9.65074
▁아기	-9.65123
액	-9.65186
꽃	-9.65193
▁구체적	-9.65244
▁으면서	-9.6534
▁감정	-9.65358
▁과학	-9.65481
▁비판	-9.65556
▁아닐	-9.65746
▁살아	-9.65786
▁성장	-9.65821
세력	-9.65823
▁그게	-9.65898
▁나누	-9.66057
▁에다	-9.66199
▁돌아가	-9.66205
규	-9.66255
▁제공	-9.6629
▁오래	-9.66349
▁필요한	-9.66369
▁전통	-9.66451
었	-9.66537
▁말씀	-9.66674
▁성공	-9.66707
▁아름다	-9.66746
지역	-9.6689
▁가능	-9.6692
▁후보	-9.67161
▁TV	-9.67228
죄	-9.67375
▁기분	-9.67535
▁형성	-9.67657
냐	-9.67817
▁영국	-9.67824
▁딸	-9.67835
뇌	-9.67904
▁저녁	-9.6793
존	-9.67989
▁살펴	-9.68006
▁중요	-9.68398
위원회	-9.68411
충	-9.68426
▁꽃	-9.68462
▁경기	-9.68474
▁대화	-9.68543
o	-9.68633
▁분위기	-9.68724
궁	-9.68829
▁서도	-9.68944
▁능력	-9.69011
▁지식	-9.6925
▁방향	-9.69251
▁따르	-9.69264
▁인물	-9.69266
▁경쟁	-9.69422
▁오늘날	-9.69447
▁로는	-9.6961
▁환자	-9.69648
▁냐	-9.69652
▁오후	-9.69843
▁좋아	-9.69857
▁기만	-9.7006
▁시장	-9.70234
▁내리	-9.70256
짐	-9.70309
▁그랬	-9.70331
▁민중	-9.70397
▁사람이	-9.7054
▁기회	-9.7055
▁만한	-9.70763
▁유럽	-9.70781
▁이날	-9.70807
황	-9.70854
▁지요	-9.70911
어지	-9.70928
▁작업	-9.70953
다니	-9.71101
▁보다도	-9.71184
허	-9.71187
례	-9.71279
▁누가	-9.71386
▁느	-9.71387
너	-9.71387
▁지배	-9.71456
▁밥	-9.71713
c	-9.7174
는데	-9.71778
국가	-9.71944
▁달라	-9.72023
▁마찬가지	-9.72104
욕	-9.72111
▁인생	-9.72196
▁바다	-9.72355
▁눈물	-9.72499
P	-9.73193
▁비해	-9.73229
▁등장	-9.73342
▁단계	-9.73377
견	-9.73447
면서	-9.73462
▁원인	-9.73537
거래	-9.73693
▁잃	-9.73716
▁대표	-9.73759
대회	-9.73827
▁의식	-9.73836
브	-9.73895
머리	-9.74061
D	-9.74087
▁가치	-9.74094
▁겠다는	-9.74118
▁걱정	-9.74162
알	-9.74173
▁우리들	-9.74234
렀	-9.74414
벽	-9.74514
▁외국	-9.74807
▁억원	-9.75141
기다리	-9.75406
혁명	-9.75489
▁논의	-9.75537
걸	-9.75691
▁다양한	-9.75696
▁내려	-9.75949
바닥	-9.75974
겠	-9.76162
▁최고	-9.76504
▁각각	-9.76541
▁었기	-9.76706
▁독일	-9.76965
▁버린	-9.76986
▁학문	-9.77062
짜	-9.77106
효	-9.77279
a	-9.77284
▁결코	-9.77304
묘	-9.77381
▁고자	-9.77405
▁추진	-9.77501
닫	-9.77527
▁실제로	-9.77627
머	-9.77635
봐	-9.77653
▁차지	-9.77703
▁옛날	-9.77765
얼	-9.77794
정권	-9.77796
▁분명	-9.77885
▁주제	-9.77942
▁기가	-9.78144
▁종교	-9.78152
통하	-9.78194
▁곤	-9.78559
▁건강	-9.78566
▁잠시	-9.78624
▁쌓	-9.78792
▁불구	-9.7883
니까	-9.78925
▁권력	-9.79008
▁노동	-9.79041
늘	-9.7908
▁할머니	-9.79178
▁가까	-9.79195
▁쉬	-9.79259
섬	-9.79259
▁공동	-9.79374
▁위치	-9.79405
▁라도	-9.79438
▁연결	-9.79447
밥	-9.7945
▁전국	-9.79572
회사	-9.79965
▁주변	-9.80017
▁다만	-9.80059
▁반드시	-9.80179
▁빼	-9.80194
▁변	-9.80197
▁주는	-9.8027
맨	-9.80349
▁시각	-9.80353
시작하	-9.8037
▁대하	-9.80394
▁겪	-9.80444
밭	-9.80662
케	-9.80704
▁제일	-9.80775
▁흔히	-9.80824
장관	-9.80901
▁약간	-9.80955
▁재미	-9.80983
▁따른	-9.81148
▁향해	-9.81188
록	-9.81347
▁자주	-9.81352
▁보통	-9.81405
▁기본	-9.8141
때	-9.81468
▁의견	-9.81527
팔	-9.81529
았	-9.81549
▁잊	-9.81553
▁았습니다	-9.81658
▁음악	-9.81732
▁언제나	-9.81926
산업	-9.81955
▁방식	-9.82061
▁언제	-9.82144
경제	-9.82244
구나	-9.82248
▁측면	-9.82296
▁끝나	-9.82326
▁공간	-9.82496
▁일단	-9.8273
▁만드	-9.82768
▁달러	-9.82803
▁소개	-9.82959
번째	-9.83094
▁정치적	-9.83124
흥	-9.83127
▁분야	-9.83227
▁만원	-9.83325
체계	-9.83343
▁여전히	-9.83508
▁수입	-9.83722
훈	-9.83767
사업	-9.83792
▁사업	-9.83797
▁투자	-9.84004
▁이곳	-9.84017
▁위하	-9.84074
▁담배	-9.84122
께	-9.84138
▁문장	-9.84211
▁느냐	-9.84229
▁그만	-9.84249
짝	-9.84349
▁우주	-9.84459
득	-9.84545
▁경찰	-9.8481
▁시절	-9.85046
▁주인	-9.85147
▁선거	-9.85334
택	-9.85372
폭	-9.85375
▁생기	-9.85443
▁수록	-9.85588
협	-9.85598
▁끌	-9.85624
대학	-9.85763
▁서양	-9.8594
완	-9.86054
▁도움	-9.86112
▁특징	-9.86222
▁항상	-9.86273
드리	-9.86368
▁효과	-9.86506
▁빨리	-9.86553
혜	-9.86826
▁차원	-9.86925
휘	-9.86991
관리	-9.87133
▁이전	-9.87219
▁강화	-9.87238
▁아도	-9.87309
기업	-9.87369
▁높이	-9.87455
▁아저씨	-9.87475
▁별로	-9.87502
▁불과	-9.878
▁자세	-9.88026
▁고향	-9.88092
▁버렸	-9.884
빈	-9.88574
자리	-9.88747
다른	-9.88911
▁일정	-9.89042
▁규정	-9.8913
둥	-9.89267
▁이론	-9.89291
▁운영	-9.89403
참	-9.89479
확	-9.89489
▁첫째	-9.89493
▁질문	-9.89506
▁봤	-9.89617
▁마시	-9.89638
▁여행	-9.89669
끼	-9.89836
▁그날	-9.89845
▁진짜	-9.89905
▁중앙	-9.8991
시설	-9.90005
▁의사	-9.90012
▁논	-9.90057
▁부모	-9.90141
▁주고	-9.90265
▁듯한	-9.9041
▁늘어	-9.90568
▁아마	-9.90576
▁벌써	-9.90578
▁완전히	-9.90591
▁각종	-9.90686
▁그곳	-9.90753
▁붙	-9.90869
▁부인	-9.90916
▁지고	-9.91149
으	-9.91203
▁와는	-9.91383
▁건물	-9.91458
▁불러	-9.91459
▁반면	-9.91599
덜	-9.91605
▁아파트	-9.9163
▁었으며	-9.9172
찮	-9.91936
▁그러므로	-9.91939
▁올	-9.91957
▁힘들	-9.91977
▁보도	-9.92088
엄	-9.92098
촌	-9.92104
찰	-9.92214
▁지지	-9.92305
혈	-9.92386
째	-9.92481
▁자식	-9.92506
▁기준	-9.92508
춤	-9.92513
▁보호	-9.92528
I	-9.92591
▁느껴	-9.92765
▁젖	-9.92818
▁그러면	-9.93106
▁수행	-9.93167
al	-9.93507
▁나무	-9.93588
▁그동안	-9.93656
▁찍	-9.93968
▁건설	-9.93996
▁파악	-9.94031
당하	-9.94049
▁형식	-9.94059
탁	-9.94075
▁봄	-9.94121
▁경영	-9.94158
지만	-9.94173
▁북	-9.94289
▁검	-9.94319
▁치료	-9.94371
념	-9.94402
공사	-9.94544
▁독자	-9.94553
▁윤	-9.94685
▁해당	-9.94717
▁행사	-9.9487
▁활용	-9.94905
▁평화	-9.9499
▁자면	-9.95071
▁인류	-9.95135
▁산업	-9.95207
▁시인	-9.95251
혹	-9.95449
▁기존	-9.95538
▁태어	-9.95665
▁부정	-9.95668
▁고통	-9.95747
▁에만	-9.95763
맥	-9.95885
▁피해	-9.9591
▁조차	-9.95926
▁벗어나	-9.95933
▁어린	-9.96069
▁실제	-9.96164
럽	-9.96275
나라	-9.96282
A	-9.9635
▁전달	-9.96465
▁집안	-9.9648
▁짓	-9.96533
꼬	-9.96538
▁이때	-9.96629
▁빈	-9.96752
▁주요	-9.96803
검	-9.96893
기술	-9.9698
▁쓸	-9.97121
그룹	-9.97125
▁진정	-9.97317
▁근거	-9.97382
▁조건	-9.97433
개발	-9.97442
▁배우	-9.97535
▁와의	-9.97546
▁관리	-9.97685
▁았고	-9.97746
▁지난해	-9.97887
업체	-9.97938
▁자꾸	-9.97968
▁남성	-9.97986
▁떨	-9.97994
▁작용	-9.98079
▁걷	-9.98094
▁거예	-9.98111
▁지켜	-9.98112
▁짧	-9.98147
▁빠져	-9.98172
▁나중	-9.98339
자본	-9.98398
▁인상	-9.98429
플	-9.9845
▁전개	-9.98494
▁겠다고	-9.98592
▁자료	-9.98597
잔	-9.98668
▁상품	-9.98693
▁맛	-9.98752
스트	-9.98763
▁연기	-9.98934
▁딱	-9.98945
시켰	-9.98998
▁으니까	-9.99152
낙	-9.99164
어졌	-9.99187
맞	-9.99198
▁영어	-9.99233
▁려면	-9.99255
▁뛰	-9.99286
▁진다	-9.993
▁겠지만	-9.99311
▁해석	-9.9939
▁이익	-9.99617
▁구분	-9.99673
둔	-9.9971
▁과연	-9.99753
▁겨울	-9.99938
▁정확	-9.99971
▁둘째	-10.0001
▁놀라	-10.0006
사람	-10.0012
▁나타났	-10.0016
▁는다는	-10.0028
▁갈등	-10.0041
촉	-10.0046
▁몰라	-10.0047
▁남북	-10.0049
n	-10.0057
▁웃음	-10.0057
▁자동차	-10.0059
▁전자	-10.0062
앉	-10.0081
푸	-10.0092
▁판매	-10.0096
▁만약	-10.0096
▁차례	-10.0098
▁원래	-10.0106
▁바꾸	-10.0108
▁텔레비전	-10.0126
▁독립	-10.0133
사상	-10.0134
쁜	-10.0136
▁편지	-10.0141
b	-10.0145
▁웠다	-10.0149
▁사장	-10.0157
▁늦	-10.0164
▁애들	-10.0166
▁그저	-10.0166
▁뽑	-10.017
▁전문	-10.0182
▁뒷	-10.0183
▁그건	-10.0205
y	-10.0215
탕	-10.0223
m	-10.0223
었다	-10.0223
▁집단	-10.0231
▁끊	-10.0233
쇠	-10.0239
▁설치	-10.0239
▁알아	-10.0251
랐	-10.0261
▁창조	-10.0273
▁밀	-10.0275
▁들어오	-10.0276
▁들려	-10.031
▁추구	-10.031
▁가득	-10.0312
▁은데	-10.0348
습니다	-10.0352
▁바라	-10.0354
▁보고	-10.0365
▁사정	-10.0369
압	-10.037
▁좀더	-10.0374
▁동물	-10.0374
▁그걸	-10.0377
▁행복	-10.0384
▁제기	-10.0389
▁정책	-10.0395
▁앞서	-10.0397
▁올해	-10.0398
▁방문	-10.0403
핵	-10.0406
▁게도	-10.0417
뀌	-10.042
홍	-10.042
▁전망	-10.0425
탐	-10.0437
▁해방	-10.0457
▁적용	-10.0458
▁진실	-10.0458
▁행위	-10.0475
칙	-10.0484
▁물건	-10.0505
▁셈이	-10.0521
▁개월	-10.0522
G	-10.0529
▁실험	-10.0533
기간	-10.0534
풀	-10.0535
▁내부	-10.0537
in	-10.054
▁예상	-10.0543
▁영역	-10.0544
세우	-10.0553
▁모여	-10.0557
보험	-10.0559
눈	-10.0563
▁황	-10.0566
g	-10.0579
누	-10.0588
싼	-10.0589
E	-10.0604
▁여름	-10.0607
까지	-10.0614
세워	-10.062
▁그러니까	-10.0637
▁종류	-10.0637
셨	-10.0638
▁열심히	-10.0659
▁점점	-10.0672
묵	-10.0677
돈	-10.0686
▁자는	-10.0704
▁어떠	-10.0706
조정	-10.0706
▁…	-10.0713
행위	-10.0713
▁엄청	-10.0717
▁유지	-10.0733
켜	-10.0761
꼴	-10.0761
▁규모	-10.078
▁떨어지	-10.0781
▁생긴	-10.0787
▁기까지	-10.0788
▁폭	-10.0792
▁약속	-10.0799
베	-10.0801
▁불안	-10.082
▁뿌리	-10.0833
▁적극적	-10.0838
련	-10.0853
▁어찌	-10.0857
▁까지도	-10.0861
▁상징	-10.0875
▁NG	-10.0891
▁송	-10.0892
▁주위	-10.0893
▁확보	-10.0907
▁가져	-10.091
섰	-10.0914
▁논리	-10.0915
구멍	-10.092
▁희망	-10.0925
▁이미지	-10.0926
▁관점	-10.0927
▁기사	-10.0931
▁할아버지	-10.0939
S	-10.0949
움직이	-10.095
▁방안	-10.0953
▁나아가	-10.0969
d	-10.0981
▁공격	-10.0987
u	-10.0991
▁에선	-10.0993
구요	-10.0997
것	-10.0998
▁바탕	-10.0999
▁쌀	-10.0999
▁겨우	-10.1003
▁그거	-10.1003
▁반응	-10.1019
▁어서는	-10.1019
▁목표	-10.1025
▁어깨	-10.1032
괴	-10.1033
춘	-10.1037
▁한계	-10.1039
▁언니	-10.1039
▁았을	-10.1042
▁동네	-10.105
떡	-10.1057
전략	-10.1059
흐	-10.1062
p	-10.1076
▁시민	-10.1082
놀이	-10.1083
▁홍	-10.1095
쁘	-10.1099
▁나서	-10.1125
활	-10.1125
▁사내	-10.1131
놈	-10.1132
▁었으나	-10.1141
통신	-10.1148
▁기울	-10.1149
선생	-10.115
▁매일	-10.1156
식품	-10.1172
기구	-10.1172
구석	-10.1188
▁검찰	-10.1196
▁C	-10.1217
▁실천	-10.1227
끈	-10.1237
공동체	-10.1245
▁졸업	-10.1256
계급	-10.1268
▁감독	-10.1274
▁정리	-10.1282
▁발달	-10.1286
▁지구	-10.1289
▁되게	-10.1291
▁아빠	-10.1291
▁커다란	-10.1303
▁위기	-10.1305
환경	-10.1328
▁만은	-10.1328
▁특성	-10.1335
▁학년	-10.1339
▁오빠	-10.1339
▁부부	-10.1359
주택	-10.1368
원하	-10.1374
▁까지는	-10.1376
▁들어갔	-10.1383
▁건너	-10.1388
붙	-10.14
▁아요	-10.1406
▁비록	-10.141
▁었어	-10.1412
▁개혁	-10.1419
▁도입	-10.1424
선수	-10.1427
▁대단	-10.1428
▁상상	-10.1428
▁실시	-10.1429
▁세요	-10.1431
▁장면	-10.1432
▁따위	-10.1439
죠	-10.1447
▁경향	-10.1451
▁마리	-10.1469
지키	-10.147
다리	-10.1478
▁고객	-10.1486
▁역사적	-10.1486
방법	-10.149
▁한마디	-10.1495
곤	-10.1503
▁가을	-10.1505
▁구조	-10.1505
▁부산	-10.1506
▁녹	-10.1507
▁대개	-10.1519
걸음	-10.1529
빌	-10.153
밤	-10.1543
▁끼	-10.156
▁기초	-10.1563
▁철학	-10.1568
▁S	-10.1573
끝	-10.1603
개혁	-10.1607
▁친구들	-10.1611
▁덮	-10.1625
▁너무나	-10.1629
▁공연	-10.1647
꾼	-10.1649
▁뉴스	-10.165
특	-10.1655
가지	-10.1658
됨	-10.1662
홀	-10.167
▁의료	-10.167
직원	-10.1674
▁장애	-10.1686
움	-10.1691
▁놈	-10.1692
조직	-10.1693
▁간단	-10.1699
▁수혜	-10.1701
따	-10.1708
사건	-10.1711
▁나갔	-10.1712
▁싸	-10.1719
객	-10.1721
솔	-10.1725
잘	-10.1727
▁제작	-10.173
▁선생	-10.1738
▁직장	-10.1746
▁며칠	-10.1757
균	-10.176
방식	-10.1764
문명	-10.1779
어난	-10.1781
er	-10.1783
전문가	-10.1792
▁미리	-10.1794
▁올라가	-10.1811
▁이거	-10.1823
▁직업	-10.1825
▁불교	-10.1827
만큼	-10.1829
껏	-10.183
좌	-10.1834
▁로서의	-10.1842
N	-10.186
H	-10.1868
▁비슷한	-10.1868
▁잔	-10.1869
▁동생	-10.1873
▁공공	-10.1888
▁깊이	-10.1889
R	-10.1898
▁A	-10.1913
▁마저	-10.192
▁야만	-10.1929
▁경제적	-10.1932
▁감소	-10.1937
▁이른바	-10.1941
▁제도	-10.1941
건축	-10.1947
맛	-10.1957
투쟁	-10.1959
▁까닭	-10.1971
▁한참	-10.1971
▁부담	-10.1974
F	-10.1978
▁주인공	-10.1982
▁겠는가	-10.1984
올랐	-10.1986
▁멀	-10.1996
졸	-10.1997
▁수출	-10.2005
▁은행	-10.2011
▁종합	-10.2022
탑	-10.2032
랄	-10.2034
쩔	-10.2035
계약	-10.2041
▁인기	-10.2044
i	-10.2054
비용	-10.2064
▁일찍	-10.2076
▁커피	-10.208
▁극복	-10.2088
▁M	-10.2092
▁다루	-10.2097
▁유리	-10.2099
민족	-10.2105
▁못해	-10.2107
▁다리	-10.2112
률	-10.2117
▁노인	-10.2124
억	-10.2132
▁금융	-10.2133
어났	-10.2139
▁점이	-10.2144
▁수업	-10.2154
▁못할	-10.2156
▁민주당	-10.2177
로소	-10.2184
▁냄새	-10.2184
조각	-10.2185
션	-10.2191
▁맺	-10.22
▁굳	-10.2208
▁갖추	-10.221
서는	-10.221
▁도착	-10.2217
능력	-10.2223
▁배경	-10.2224
▁제외	-10.2232
조사	-10.2238
둘	-10.2241
이상	-10.2247
▁위험	-10.2251
▁포기	-10.2251
▁제품	-10.2256
▁그려	-10.2263
▁그렇게	-10.2269
▁꺼내	-10.2275
▁집중	-10.2278
▁흐르	-10.228
▁어린이	-10.2284
▁중간	-10.2287
▁멀리	-10.2287
▁복잡	-10.2288
렁	-10.2291
▁섞	-10.2293
▁베	-10.2299
영업	-10.2303
▁접	-10.2306
▁지니	-10.2307
▁자라	-10.2307
양식	-10.2314
▁벗	-10.2324
▁상호	-10.233
▁나머지	-10.2331
▁에게서	-10.2337
▁쳐다보	-10.234
▁일반적	-10.2345
잎	-10.2353
대비	-10.2355
▁자본주의	-10.2357
▁적어	-10.2371
▁꺼	-10.2399
▁현장	-10.2402
▁사물	-10.2402
▁흔들	-10.2412
▁시험	-10.2413
대로	-10.2422
▁일제	-10.2424
세포	-10.2425
▁거쳐	-10.2429
▁쥐	-10.2441
땀	-10.2445
학자	-10.2454
▁실패	-10.2466
쉬	-10.2468
▁똑같	-10.2469
교회	-10.2474
호텔	-10.2476
끄	-10.2484
든지	-10.2505
때로	-10.2505
연구	-10.251
훈련	-10.2514
웠	-10.2528
▁접근	-10.2547
▁수사	-10.2549
▁분명히	-10.2554
▁요소	-10.2565
▁우려	-10.2582
▁거부	-10.259
▁훌륭	-10.259
▁새벽	-10.2593
▁사랑하	-10.2594
휴	-10.2609
▁합의	-10.2621
방송	-10.2631
▁전기	-10.2634
▁열린	-10.2647
칭	-10.2653
▁따로	-10.266
뼈	-10.266
▁떨어져	-10.2661
▁한쪽	-10.2661
▁병원	-10.2661
대책	-10.2662
▁단지	-10.2684
▁썼	-10.2685
▁벌어	-10.2693
▁소식	-10.2701
▁둔	-10.2708
▁교사	-10.2717
▁검사	-10.2718
스타	-10.2727
▁아까	-10.273
▁핵심	-10.2732
▁계기	-10.2733
▁붉	-10.2739
▁초기	-10.2744
▁내일	-10.2759
▁정의	-10.2764
▁기계	-10.2766
▁소비	-10.2766
꼈	-10.2777
▁사례	-10.278
▁나름	-10.2791
부장	-10.2793
▁불가능	-10.28
▁다섯	-10.2801
디어	-10.2802
▁옳	-10.2802
▁예리	-10.2808
▁거라	-10.281
엽	-10.2816
▁주체	-10.2825
부문	-10.2835
그릇	-10.285
▁한국인	-10.2859
▁특정	-10.2866
슈	-10.2872
▁처리	-10.2873
▁소년	-10.2874
▁안정	-10.2875
프로	-10.288
▁떼	-10.2892
▁자극	-10.2893
▁손님	-10.2902
▁수용	-10.2905
▁순수	-10.2906
엔	-10.2908
클	-10.2909
▁무서	-10.2909
썩	-10.2912
▁세대	-10.2913
▁어쩌면	-10.2914
계획	-10.2918
▁장소	-10.2922
윤	-10.2924
▁흰	-10.2928
▁내놓	-10.2934
매체	-10.2941
▁버스	-10.2941
▁농민	-10.2946
▁검토	-10.2947
▁소유	-10.295
▁헤	-10.2966
띠	-10.2968
자원	-10.2971
▁좁	-10.2974
상태	-10.2975
▁전제	-10.2977
▁제한	-10.298
▁보장	-10.298
협력	-10.2987
가게	-10.2988
l	-10.2995
▁충분히	-10.2995
▁았지만	-10.3001
▁농사	-10.3013
전쟁	-10.3016
▁군사	-10.3018
조치	-10.3019
이론	-10.3022
깔	-10.3027
블	-10.303
릇	-10.303
▁으므로	-10.3032
▁어둠	-10.3033
▁사회주의	-10.3036
▁가까이	-10.3037
놈들	-10.304
▁떨어진	-10.3042
▁시도	-10.3055
새끼	-10.3055
▁참가	-10.3055
▁통한	-10.3064
▁몰	-10.3069
▁출발	-10.3069
밖	-10.3075
▁공장	-10.3076
힐	-10.3081
▁주목	-10.3083
▁시선	-10.3094
어보	-10.31
산물	-10.31
▁허리	-10.3103
▁생겨	-10.3104
▁선비	-10.3111
▁개선	-10.3126
▁결론	-10.3128
▁자금	-10.3134
평가	-10.3134
▁에게도	-10.3158
▁의원	-10.3161
▁당장	-10.3164
세계	-10.3169
▁마침내	-10.317
M	-10.317
▁마주	-10.3176
▁식사	-10.3177
L	-10.3194
▁운명	-10.3207
널	-10.3213
납	-10.3213
▁대응	-10.3216
▁상당	-10.322
▁더구나	-10.322
▁동양	-10.3221
자인	-10.3222
▁일으	-10.3231
▁근무	-10.3234
▁원리	-10.3238
▁전해	-10.3248
사항	-10.3251
▁러시아	-10.3252
▁돌려	-10.3258
▁국회	-10.3272
▁여자들	-10.328
▁이게	-10.328
기능	-10.3283
캐	-10.3285
▁관계자	-10.3287
or	-10.3294
▁무렵	-10.3294
▁오전	-10.3296
▁인터넷	-10.3302
▁긴장	-10.3317
찌	-10.3327
▁출신	-10.3332
떨	-10.3334
▁겠습니다	-10.3335
흘	-10.3342
콩	-10.335
▁신라	-10.3352
▁m	-10.3366
▁실현	-10.3373
▁에요	-10.3377
논문	-10.3378
▁속도	-10.3388
▁사태	-10.3388
▁어두	-10.3389
과학	-10.3399
섭	-10.34
▁외부	-10.3401
무역	-10.3402
▁더불	-10.3423
슨	-10.3425
▁절대	-10.3428
▁안전	-10.3438
▁올라	-10.3441
▁정당	-10.3444
▁잖아요	-10.3458
▁곳이	-10.3464
옷	-10.3481
f	-10.3481
▁띄	-10.3486
▁표시	-10.3495
▁으로서의	-10.3497
▁B	-10.3497
▁몰랐	-10.3504
일으키	-10.3505
▁원칙	-10.3519
h	-10.3519
▁았는데	-10.352
습니까	-10.3523
의원	-10.3533
▁한반도	-10.3543
▁움	-10.3571
정신	-10.3574
▁강한	-10.3579
심하	-10.358
▁시골	-10.3588
▁흙	-10.3592
정보	-10.3594
▁아예	-10.3596
▁무대	-10.3596
▁임금	-10.3597
▁정상	-10.3599
▁수많	-10.3602
빨	-10.3602
▁멋	-10.3604
단위	-10.3606
응	-10.3612
▁더러	-10.3619
끓	-10.3622
정치	-10.3638
▁회복	-10.3639
▁준다	-10.3641
▁최초	-10.3644
r	-10.3647
ar	-10.3648
▁민간	-10.3651
▁청년	-10.3655
▁아무것	-10.3667
기획	-10.3667
됩	-10.3673
바람	-10.3682
▁빚	-10.3691
앙	-10.37
▁만족	-10.3702
▁소련	-10.3703
▁유전자	-10.3707
▁가끔	-10.3707
▁좌우	-10.3709
▁시민사회	-10.3719
▁끝내	-10.3721
▁이래	-10.3724
▁행정	-10.3724
읍	-10.3732
▁에서부터	-10.3756
▁견	-10.376
▁공포	-10.3762
▁바람직	-10.3767
▁고민	-10.3778
지원	-10.3784
▁근대	-10.3787
▁가난	-10.379
▁도대체	-10.3795
▁공개	-10.3797
중이	-10.3805
▁남녀	-10.3812
년간	-10.3812
시스템	-10.3812
투자	-10.3816
가는	-10.382
▁들어서	-10.3824
열리	-10.3826
▁일종	-10.3827
▁눈치	-10.3827
▁모아	-10.3828
김	-10.3829
▁혹시	-10.3829
▁만난	-10.383
▁께서	-10.383
▁만일	-10.3836
▁크기	-10.3837
▁만으로	-10.3841
저기	-10.3849
▁여성들	-10.3859
소설	-10.3861
▁해외	-10.3865
▁어제	-10.3865
징	-10.3867
▁드러	-10.3868
▁서비스	-10.3869
▁파괴	-10.3875
▁였고	-10.3876
접	-10.3877
▁상처	-10.388
신문	-10.3885
▁자고	-10.3887
롱	-10.3888
▁응	-10.3889
넌	-10.3891
▁지내	-10.3893
▁이념	-10.3895
▁세월	-10.39
▁즐	-10.3907
▁듯하	-10.3907
▁닦	-10.3909
▁특수	-10.3912
▁데리	-10.392
▁체험	-10.3922
▁연극	-10.3926
▁물질	-10.3938
▁전환	-10.3946
▁부여	-10.3949
▁둘러	-10.3951
▁거든	-10.396
▁반영	-10.3966
똥	-10.3979
▁펴	-10.398
써	-10.398
▁자랑	-10.3983
▁가격	-10.3988
거지	-10.4001
▁이외	-10.4009
용어	-10.4019
▁계산	-10.4028
지르	-10.4029
중인	-10.4032
▁서구	-10.4041
미술	-10.4042
신청	-10.4052
딴	-10.4059
쇼	-10.4068
▁흐름	-10.4069
룬	-10.4077
카드	-10.4079
쿠	-10.4086
▁이끌	-10.4087
▁미치	-10.4088
유지하	-10.4088
처리	-10.4095
▁어른	-10.4099
넘	-10.41
▁기간	-10.4108
▁교장	-10.4112
숲	-10.4112
뚫	-10.4122
▁그렇지만	-10.4129
▁지를	-10.4129
▁점차	-10.413
▁이웃	-10.4132
▁틈	-10.4141
소득	-10.4149
▁왜냐하면	-10.4149
▁주도	-10.4159
장치	-10.4163
▁주식	-10.4164
▁벽	-10.418
▁비교	-10.4181
▁아시아	-10.4186
▁시행	-10.4188
들여	-10.42
니다	-10.4203
▁손가락	-10.4205
▁구별	-10.4207
▁뛰어	-10.4207
엘	-10.4212
현상	-10.4224
▁맞추	-10.4227
▁최대	-10.423
▁질서	-10.4233
▁광주	-10.4236
과장	-10.4239
협회	-10.4245
▁그만큼	-10.4247
연구소	-10.4253
▁전시	-10.4254
▁불리	-10.4263
교사	-10.4269
거나	-10.4277
화하	-10.428
▁대체로	-10.4281
맹	-10.4284
▁누군가	-10.4285
▁충격	-10.4286
▁과천	-10.4298
▁거대	-10.4301
▁개방	-10.4304
곱	-10.4316
▁박사	-10.4317
▁구경	-10.4321
▁제목	-10.4324
▁부족	-10.433
▁털	-10.4336
▁길이	-10.4339
▁요인	-10.434
싸	-10.4353
▁관찰	-10.4361
▁오랜	-10.4367
▁재산	-10.4368
▁분리	-10.437
▁대립	-10.4372
▁증거	-10.4384
▁흘러	-10.4386
▁평균	-10.4388
▁가능한	-10.4389
정하	-10.439
웅	-10.4401
▁경계	-10.4402
야말로	-10.4402
늦	-10.4403
학과	-10.4406
▁담당	-10.4409
▁강의	-10.441
연합	-10.4426
▁걸려	-10.4427
▁권리	-10.4427
▁드러내	-10.4437
▁학습	-10.4437
▁확실	-10.4439
▁걸쳐	-10.4439
▁지속	-10.4443
▁몰려	-10.4447
▁종이	-10.4447
re	-10.4453
회담	-10.4455
▁놓고	-10.4457
▁월드컵	-10.4461
라는	-10.4461
▁성과	-10.4486
행하	-10.4486
▁농업	-10.4512
▁소비자	-10.4513
윤리	-10.4513
레이	-10.4526
▁도로	-10.4526
▁지닌	-10.4544
기반	-10.4546
극장	-10.4559
▁벌이	-10.4563
▁무척	-10.4568
기보다는	-10.4577
▁무리	-10.4579
부리	-10.4584
▁남쪽	-10.4587
▁자네	-10.4592
▁진리	-10.4598
▁요청	-10.46
▁인도	-10.46
▁돌리	-10.4616
절차	-10.4629
츠	-10.4629
▁통합	-10.4631
▁짐작	-10.4631
▁시는	-10.4632
선언	-10.4635
▁공급	-10.4646
▁식민지	-10.465
지나치	-10.4651
벌레	-10.4652
▁줘	-10.4658
더라	-10.4659
▁곁	-10.4674
▁씻	-10.4675
▁잠깐	-10.4677
▁인해	-10.4684
▁비밀	-10.4685
▁들어와	-10.4687
▁었는지	-10.4694
▁작년	-10.4704
▁완성	-10.4705
낄	-10.4706
▁거든요	-10.4708
증권	-10.4709
예술	-10.4709
▁공기	-10.4716
모임	-10.4723
▁조화	-10.4737
▁견해	-10.4752
마디	-10.4758
▁인구	-10.477
▁설명하	-10.4776
▁폭력	-10.4787
벤	-10.4789
▁인제	-10.479
냉	-10.479
▁설립	-10.4794
서방	-10.4804
타내	-10.4807
빵	-10.4811
지요	-10.4813
▁녀석	-10.4814
▁관련된	-10.4831
▁금방	-10.4835
학자들	-10.4853
공업	-10.486
여금	-10.486
▁여인	-10.4861
▁참석	-10.4865
k	-10.4871
식물	-10.4872
협상	-10.4872
▁닿	-10.4883
아들	-10.4886
▁과제	-10.489
▁감각	-10.4893
▁이라크	-10.4899
범죄	-10.49
▁대우	-10.4902
▁이러	-10.4911
▁었어요	-10.4913
▁사라	-10.4916
고등학교	-10.4918
▁사전	-10.4922
▁피부	-10.4923
▁승리	-10.4925
▁동일	-10.4928
다는	-10.4937
겠어요	-10.4943
▁로서는	-10.4943
셔	-10.4946
▁구속	-10.495
부분	-10.4953
▁연락	-10.4954
▁성적	-10.4965
무덤	-10.4968
▁왔다	-10.4974
닙	-10.4976
▁사무실	-10.4979
몽	-10.498
센	-10.4981
▁싸움	-10.4985
▁조심	-10.4994
▁토론	-10.5014
▁자리잡	-10.502
통치	-10.5021
▁어떻게	-10.5025
▁소문	-10.5029
서비스	-10.5031
에너지	-10.5037
▁맑	-10.5039
▁칼	-10.5041
▁부탁	-10.5042
▁생존	-10.5058
▁장기	-10.5066
▁비교적	-10.5072
▁미군	-10.5075
▁겉	-10.5077
C	-10.5098
▁셨다	-10.5102
부터는	-10.5103
▁모순	-10.5103
▁기다	-10.5111
▁결합	-10.512
▁평소	-10.512
▁겁니	-10.5121
▁뿐만	-10.5129
▁김씨	-10.5135
대출	-10.5148
양하	-10.515
▁업무	-10.5153
작업	-10.5156
닥	-10.5157
▁동기	-10.5168
▁나올	-10.5169
쑥	-10.5174
▁다소	-10.5178
▁면은	-10.5181
▁농촌	-10.5185
▁마당	-10.5185
▁말인	-10.5194
▁의존	-10.5201
▁진출	-10.5203
바지	-10.5204
▁들어간	-10.5208
▁모델	-10.5215
▁단어	-10.5222
▁형기	-10.5227
다녔	-10.5233
W	-10.5234
▁강하	-10.5251
▁소재	-10.5255
▁워서	-10.5259
놓은	-10.5265
턱	-10.5267
제품	-10.5275
▁쓰레기	-10.5282
흉	-10.5283
보면	-10.5288
▁가만히	-10.5306
▁따뜻	-10.5306
도시	-10.5308
▁심지어	-10.5315
얘	-10.5315
▁지식인	-10.5323
▁내년	-10.5323
▁로써	-10.5326
드라마	-10.5329
▁신화	-10.5334
▁올려	-10.5342
마루	-10.5349
▁동의	-10.535
▁어지는	-10.536
▁으로도	-10.536
▁대형	-10.5361
▁반복	-10.5362
▁여유	-10.5362
▁빠지	-10.5369
▁교통	-10.5385
몰	-10.539
▁떠올	-10.5397
▁불행	-10.5398
잠	-10.5398
겸	-10.5406
▁선정	-10.5411
혐의	-10.5417
이나	-10.5419
무지	-10.542
▁자신들	-10.5423
▁민주	-10.5427
V	-10.5437
▁겠지	-10.5455
자금	-10.5459
삭	-10.546
▁재정	-10.5475
바위	-10.5482
위원장	-10.5483
▁걸어	-10.5485
an	-10.549
▁총리	-10.5496
싹	-10.5496
▁신뢰	-10.5511
▁북쪽	-10.5513
▁기자	-10.5514
▁과도	-10.5515
▁욕망	-10.5521
상승	-10.5523
화학	-10.5527
▁저항	-10.5531
노동자	-10.5533
▁지나가	-10.5535
▁편집	-10.5539
▁가를	-10.5546
▁불렀	-10.5568
▁지섭	-10.557
▁어쨌든	-10.5572
▁혼란	-10.5576
▁문득	-10.5577
잖	-10.5577
깃	-10.5591
▁올리	-10.5596
닐	-10.5597
▁출연	-10.5597
규제	-10.5597
▁민주주의	-10.5597
병원	-10.5598
▁았다는	-10.5601
▁뜨거	-10.5616
▁군대	-10.5617
▁늙	-10.5621
마련이	-10.5637
비율	-10.5638
어질	-10.5642
▁여러분	-10.5643
▁셋째	-10.5645
▁조성	-10.5649
삐	-10.5655
▁비난	-10.5675
▁머물	-10.5681
▁영양	-10.5691
▁나갈	-10.5691
는지	-10.5696
분야	-10.5696
▁필자	-10.5703
▁관념	-10.5711
더니	-10.5713
기도	-10.5716
겹	-10.5718
▁심각한	-10.5729
▁어려움	-10.5731
▁미소	-10.5735
향하	-10.5741
▁가리	-10.5744
사람들	-10.5746
꿀	-10.575
▁불편	-10.5755
마을	-10.5756
▁보수	-10.5757
▁허용	-10.5757
▁테니	-10.5764
▁에겐	-10.5765
▁개성	-10.577
줄기	-10.5776
도리	-10.5783
▁시집	-10.5787
▁누나	-10.579
▁들어왔	-10.5796
▁용기	-10.5801
▁오랫동안	-10.5803
▁언젠	-10.5803
▁삼성	-10.5804
쥐	-10.5808
아내	-10.5817
▁아나운서	-10.5825
▁는다고	-10.5825
▁선물	-10.5831
▁일하	-10.5833
대상	-10.584
▁라며	-10.5841
▁뚜렷	-10.5846
▁온갖	-10.5846
범위	-10.5854
만한	-10.5854
▁로마	-10.5856
▁탓	-10.5868
노조	-10.5869
수요	-10.5878
▁먹이	-10.5886
▁감사	-10.5887
▁가졌	-10.5889
▁아마도	-10.5891
대표	-10.5905
딱	-10.5915
지기	-10.5917
▁비중	-10.5926
▁대구	-10.5927
ic	-10.5932
▁구입	-10.5945
▁인천	-10.5947
▁전부	-10.5948
▁물러	-10.5969
▁서술	-10.5975
금융	-10.5975
▁설정	-10.5976
▁추가	-10.5983
▁아름	-10.5997
다듬	-10.6
▁수단	-10.6006
가치	-10.6009
▁그래도	-10.6009
극히	-10.601
▁밟	-10.6019
▁나간	-10.6019
▁움직임	-10.602
▁처지	-10.6024
논	-10.603
▁발휘	-10.6033
털	-10.6035
▁정신적	-10.6042
▁문제점	-10.6049
당국	-10.6052
굽	-10.6062
▁자마자	-10.6062
기둥	-10.6064
▁나섰	-10.6067
벨	-10.6071
둑	-10.6082
경쟁력	-10.6084
▁신분	-10.6089
짜리	-10.6115
▁조금씩	-10.6131
▁묘사	-10.6132
▁에까지	-10.6138
가들	-10.6139
조합	-10.614
▁성립	-10.6154
▁매달	-10.6154
▁환상	-10.6158
▁드러나	-10.6159
▁근까	-10.6164
뜻	-10.6168
▁정해	-10.6171
▁경지	-10.6174
▁다녀	-10.6175
▁감동	-10.6178
▁으려	-10.6181
▁기여	-10.6188
▁발해	-10.6189
위원	-10.619
▁입술	-10.6195
느리	-10.62
▁여야	-10.6211
▁들리	-10.6211
▁눈길	-10.6211
▁책상	-10.6213
▁방침	-10.6218
학적	-10.6219
뻔	-10.6227
단계	-10.6229
▁푸른	-10.6229
칼	-10.6235
깝	-10.6238
▁분단	-10.6243
▁영구	-10.6252
공간	-10.6255
끼리	-10.6258
▁고서	-10.6261
가루	-10.6269
통화	-10.6269
▁토지	-10.6273
교수	-10.6279
▁즐기	-10.6293
▁LG	-10.6294
뻗	-10.6305
센터	-10.6307
조건	-10.6308
▁국민들	-10.6316
수술	-10.6332
잇	-10.6333
자료	-10.6333
▁놓여	-10.6339
어내	-10.6343
눌	-10.6349
명령	-10.636
▁고생	-10.6362
▁줄어	-10.6365
교환	-10.6366
▁동원	-10.6369
▁개정	-10.6379
▁상당히	-10.6381
▁으려고	-10.6381
원들	-10.6383
▁연출	-10.6385
▁꽤	-10.6386
▁거듭	-10.6396
▁언급	-10.6397
꼬리	-10.6398
▁본격적	-10.64
숭	-10.6404
▁일상	-10.6407
▁기에는	-10.6411
쌍	-10.643
이데올로기	-10.6452
▁대체	-10.6453
▁의심	-10.6461
평등	-10.6472
엉	-10.6474
▁연습	-10.648
▁적당	-10.6488
▁걸리	-10.6495
행사	-10.6513
▁발행	-10.6528
▁철저	-10.6529
▁천천히	-10.6532
▁이야말로	-10.6535
푼	-10.6543
호흡	-10.6544
▁유명한	-10.6545
▁한나라당	-10.6555
▁취하	-10.6555
발전	-10.656
소장	-10.6568
▁얼른	-10.6569
사들	-10.6574
▁탄생	-10.6583
처럼	-10.66
▁안되	-10.66
▁시민들	-10.6601
영화	-10.6602
철학	-10.6607
▁비행기	-10.6609
콜	-10.6616
렌	-10.6624
▁본래	-10.6627
▁조국	-10.6633
▁수립	-10.6636
▁근본적	-10.6637
학원	-10.6643
▁신체	-10.6644
럴	-10.6647
▁았다고	-10.6648
▁통과	-10.6649
▁근처	-10.6664
굿	-10.667
지방	-10.6673
윗	-10.6682
▁목숨	-10.6682
▁법률	-10.6684
▁내밀	-10.6691
몫	-10.6693
▁무릎	-10.6693
계층	-10.6697
받아들이	-10.6706
▁평생	-10.6714
박물관	-10.6728
▁분류	-10.6732
찾	-10.6735
▁흥미	-10.674
▁예정이	-10.6748
칸	-10.675
▁편이	-10.6753
▁영혼	-10.6756
▁리라	-10.6784
사라지	-10.6797
꼽	-10.6817
셋	-10.6822
▁끊임없이	-10.683
▁차라리	-10.6834
켰	-10.6841
▁쓰러	-10.685
▁오염	-10.685
주의적	-10.6853
공원	-10.6855
B	-10.687
욱	-10.6871
▁희생	-10.6876
▁풍경	-10.6881
▁대표적인	-10.6886
▁주민들	-10.6887
▁본질	-10.6888
업계	-10.6892
▁남자들	-10.6894
략	-10.6917
▁까요	-10.6926
st	-10.693
아이	-10.6931
차례	-10.6955
고는	-10.6984
▁유행	-10.6988
▁취급	-10.6994
기자	-10.7019
스크	-10.7019
▁수필	-10.7027
김치	-10.7029
▁는데도	-10.7031
부대	-10.7032
▁소위	-10.7038
▁화려	-10.7042
▁지시	-10.7045
▁청와대	-10.7049
신고	-10.7053
▁던지	-10.7054
구름	-10.7068
▁저자	-10.7078
▁실수	-10.7085
붓	-10.7085
쓸	-10.7089
▁기본적	-10.7093
▁주었다	-10.7102
▁널리	-10.7102
▁국어	-10.711
▁비디오	-10.711
험	-10.7117
▁만의	-10.7121
le	-10.7124
▁이상한	-10.7127
방지	-10.7128
▁위협	-10.7131
▁에서만	-10.7141
▁아무래도	-10.7145
뉴	-10.7153
▁상실	-10.7156
▁마땅	-10.7159
집단	-10.7168
▁작성	-10.7169
보리	-10.717
▁성질	-10.7179
국민학교	-10.7188
가족	-10.7188
▁불만	-10.7199
춰	-10.7201
버스	-10.7201
▁한두	-10.7216
▁태양	-10.7224
▁문화적	-10.7225
▁빼앗	-10.7227
▁번역	-10.7229
경기	-10.7232
게임	-10.724
▁처녀	-10.7245
공장	-10.7247
▁상대적	-10.725
갓	-10.7256
딸	-10.7271
▁균형	-10.7271
▁당연히	-10.7273
▁주먹	-10.7278
르치	-10.7283
둘러	-10.7288
줬	-10.7298
▁지향	-10.7299
▁구축	-10.7303
▁전통적	-10.7305
▁활발	-10.7308
▁상업	-10.731
빙	-10.7317
▁었을까	-10.7321
▁깨달	-10.7322
▁바꿔	-10.733
멸	-10.7332
▁버려	-10.7361
서야	-10.7371
▁신비	-10.7373
▁예전	-10.7374
▁점심	-10.7374
▁베트남	-10.7379
법인	-10.7392
▁자유로	-10.7397
교류	-10.7402
여겨	-10.7405
ing	-10.7406
▁상대방	-10.7409
무용	-10.7419
심리	-10.7422
▁전반	-10.7423
▁진지	-10.7445
▁싸우	-10.7454
으면	-10.746
상황	-10.7463
▁붙여	-10.7467
▁중세	-10.7468
▁억압	-10.7469
▁어미	-10.7488
on	-10.7492
▁유명	-10.7495
신앙	-10.7506
▁심장	-10.7509
▁숫자	-10.7509
▁대전	-10.7513
▁시민단체	-10.7517
w	-10.7518
생산	-10.7525
▁진우	-10.7526
투표	-10.7528
▁기원	-10.7528
▁유일한	-10.7537
아지	-10.7545
기준	-10.7546
▁대안	-10.7548
등록	-10.7556
저런	-10.7559
▁금융기관	-10.7563
▁불법	-10.757
광고	-10.7586
▁선배	-10.7592
▁보낸	-10.7593
▁텐데	-10.7594
▁기쁨	-10.7594
▁찾아가	-10.7596
▁후반	-10.7596
▁욕구	-10.7604
▁한때	-10.7613
▁재판	-10.7619
▁내렸	-10.762
▁형편	-10.7623
▁사과	-10.7624
지붕	-10.763
▁독특	-10.7633
▁정면	-10.7633
내용	-10.7635
▁요리	-10.7636
검사	-10.7638
▁이른	-10.7639
▁기타	-10.7642
▁공익	-10.7652
▁시점	-10.7652
공항	-10.7652
▁재벌	-10.7655
▁이젠	-10.7657
▁침묵	-10.7659
천만	-10.7659
장수	-10.7659
백화점	-10.767
경영	-10.7671
쏟	-10.7675
복지	-10.768
헛	-10.7683
▁동서	-10.7687
쏘	-10.7687
영역	-10.769
규칙	-10.7694
땅	-10.7695
람	-10.7701
쩍	-10.7702
▁시내	-10.7703
en	-10.7705
구역	-10.7707
주머니	-10.7707
감독	-10.7707
▁맞춰	-10.7711
▁강력한	-10.7715
관료	-10.7717
지점	-10.7718
땐	-10.7722
▁굉장히	-10.7723
▁여섯	-10.7725
▁최종	-10.7726
▁미친	-10.7733
질서	-10.774
▁다음날	-10.7749
딜	-10.775
▁멈추	-10.7761
꽂	-10.7773
▁아주머니	-10.7773
살림	-10.7776
▁안내	-10.7782
질환	-10.7785
링	-10.7786
빠진	-10.7787
맥주	-10.7792
▁물음	-10.7794
신용	-10.7794
▁으로만	-10.7797
ch	-10.7799
▁들어온	-10.7801
▁버릴	-10.7802
▁취재	-10.7809
▁예컨	-10.7814
쟁이	-10.7818
비리	-10.7827
▁강제	-10.7828
▁개인적	-10.7832
상하	-10.7836
▁객관적	-10.7839
▁화면	-10.7839
▁가르쳐	-10.784
▁효과적	-10.7849
달리	-10.7881
▁틀림없	-10.7882
▁야지	-10.7886
▁주문	-10.7899
▁골목	-10.7908
▁아픔	-10.7918
▁았어	-10.792
▁수도	-10.7922
▁어졌다	-10.7923
▁전공	-10.7925
▁예정	-10.7927
우스	-10.793
▁창작	-10.7942
▁현지	-10.7949
▁소금	-10.795
짚	-10.7955
약한	-10.7963
어놓	-10.7967
꺾	-10.797
군데	-10.7974
▁보냈	-10.7977
▁시다	-10.7982
짙	-10.7983
▁였던	-10.7984
▁약사	-10.7985
▁과학적	-10.7991
▁어른들	-10.7995
▁권위	-10.7998
커뮤니케이션	-10.8009
▁개최	-10.8011
정한	-10.8013
▁거울	-10.8014
통일	-10.802
결과	-10.8022
▁그리하여	-10.8023
▁유엔	-10.8026
▁금지	-10.804
▁었지	-10.8044
▁들여다보	-10.8051
▁부딪	-10.8061
▁지위	-10.8062
▁생물	-10.8068
▁시계	-10.8072
대통령	-10.8079
▁인력	-10.8085
▁돌아와	-10.8085
▁여명	-10.8088
▁연장	-10.8104
▁빠져나	-10.8106
▁전후	-10.8113
흘리	-10.8115
J	-10.8116
유사	-10.8123
▁모래	-10.8126
시험	-10.8131
▁붙잡	-10.8132
노동	-10.8137
학생	-10.8141
▁무너	-10.8148
▁힘든	-10.8151
첩	-10.8154
어섰	-10.8155
▁그린	-10.8156
조차	-10.8156
▁그것들	-10.8158
▁피하	-10.8158
▁교과서	-10.8158
▁공식	-10.8164
▁주민	-10.8167
▁부동산	-10.8172
유적	-10.8172
바르	-10.8173
▁호소	-10.8174
▁밀려	-10.8182
▁느라	-10.8188
였다	-10.8192
▁긍정적	-10.8195
▁내려가	-10.8196
▁느낀	-10.8197
랍	-10.8199
▁의무	-10.82
▁연속	-10.8203
학년	-10.8204
변호사	-10.8224
▁눈앞	-10.8227
▁소녀	-10.8233
계열	-10.8238
지대	-10.824
▁뭐라	-10.8247
▁시원	-10.8251
청소년	-10.8256
▁심정	-10.8259
▁만날	-10.8261
봉사	-10.8268
▁빠른	-10.8268
▁오른	-10.8271
▁의문	-10.8279
▁이건	-10.8287
▁장식	-10.8292
전선	-10.8295
▁도망	-10.8296
▁었음	-10.8306
▁증상	-10.8309
벅	-10.8319
팅	-10.8319
▁수상	-10.8334
▁여론	-10.8338
▁사실상	-10.8358
세운	-10.836
상품	-10.8361
지게	-10.8364
▁엄격	-10.8376
▁기업들	-10.8379
▁지혜	-10.839
효과	-10.8392
토록	-10.8392
▁한숨	-10.8402
▁피우	-10.841
▁새삼	-10.841
▁실정	-10.8413
▁빌려	-10.8419
려고	-10.8422
부처	-10.8423
▁붙이	-10.8424
낫	-10.843
예금	-10.8443
깎	-10.8443
픈	-10.8447
▁올바	-10.8457
콘	-10.8457
깨	-10.8463
▁기름	-10.8467
▁확장	-10.8469
시민	-10.8471
펜	-10.8471
▁제출	-10.8473
▁백만	-10.8477
▁내린	-10.8479
▁글로벌	-10.8485
▁굳이	-10.8486
▁익숙	-10.8487
▁받아들	-10.8487
▁성인	-10.849
외교	-10.8495
▁뉴욕	-10.8499
여성	-10.8502
▁향상	-10.8506
귀족	-10.8508
▁넘어가	-10.8511
▁겠어	-10.8513
▁수정	-10.8515
▁형제	-10.8523
▁최소한	-10.853
설계	-10.8531
▁무기	-10.8533
▁거두	-10.8533
▁이내	-10.8537
종일	-10.854
▁서울대	-10.8541
▁퍼센트	-10.8541
▁우유	-10.8553
건설	-10.8555
▁내지	-10.8556
벼	-10.8569
듯	-10.8575
▁아프	-10.8575
▁영상	-10.8576
▁사무	-10.8576
▁우수	-10.8584
▁감시	-10.8589
▁발언	-10.859
항공	-10.8592
장이	-10.8593
▁각자	-10.8602
자격	-10.8602
국장	-10.8603
닮	-10.8611
▁청소	-10.8614
작가	-10.862
▁하얀	-10.8624
▁적절한	-10.8625
▁나눠	-10.8626
▁기독교	-10.8639
민주화	-10.8648
수록	-10.8651
▁합리적	-10.8658
떼	-10.8658
▁쓰이	-10.8658
▁저희	-10.8667
▁그림자	-10.8672
▁무거	-10.8675
▁알리	-10.8681
어날	-10.8682
▁벤처기업	-10.8682
▁연관	-10.8687
▁습관	-10.8688
▁한글	-10.8691
▁추정	-10.8694
▁로만	-10.8694
공무원	-10.8696
곧	-10.8701
▁고구려	-10.8712
▁어진다	-10.8717
▁판결	-10.8717
▁만화	-10.8728
▁추세	-10.8731
▁았기	-10.8734
▁고급	-10.8739
깡	-10.8739
▁겠습니까	-10.8739
▁임신	-10.8747
드라	-10.8748
▁온몸	-10.8755
▁대문	-10.8761
▁삼국	-10.8768
▁흥분	-10.8771
법원	-10.8777
▁계절	-10.8778
▁아냐	-10.8796
it	-10.8801
▁국립	-10.8801
사리	-10.8802
뜰	-10.881
닭	-10.8822
▁순서	-10.8824
▁양상	-10.8826
▁짐승	-10.8827
심사	-10.883
▁기차	-10.8832
▁중단	-10.8833
▁감상	-10.8834
멈	-10.8838
튀	-10.8854
곳	-10.8862
▁무조건	-10.887
못	-10.8872
▁으면서도	-10.888
가스	-10.8881
▁문자	-10.8882
▁도전	-10.8888
도록	-10.8888
▁유도	-10.8896
아무개	-10.8902
▁제안	-10.8902
무게	-10.8907
가락	-10.8919
▁당연한	-10.8924
맘	-10.8926
▁정서	-10.8927
▁죽이	-10.8941
▁일대	-10.8941
▁거짓말	-10.8942
▁색깔	-10.8942
▁잔뜩	-10.8956
▁일인	-10.8958
▁연주	-10.8962
경쟁	-10.8968
낡	-10.897
▁진단	-10.897
울러	-10.8973
워크	-10.8975
아비	-10.8976
싶	-10.8978
▁계단	-10.8984
▁적응	-10.8993
▁수학	-10.8995
▁연상	-10.8995
홈	-10.8998
치마	-10.8998
출판	-10.9003
수준	-10.9015
긋	-10.9021
겠다고	-10.9024
▁이동	-10.903
도구	-10.9031
언어	-10.9034
▁위대	-10.9042
▁상식	-10.9043
▁효철	-10.9046
▁즐거	-10.9047
▁가령	-10.9047
집행	-10.9049
▁조절	-10.905
뭉	-10.9051
▁예외	-10.9054
제국	-10.9057
▁침대	-10.9071
쟁	-10.9076
웬	-10.9079
ri	-10.9087
싱	-10.9087
▁미안	-10.9088
▁유학	-10.909
▁현실적	-10.9094
룩	-10.9096
십시오	-10.9102
▁었으면	-10.9103
살이	-10.9104
▁그치	-10.9105
▁소속	-10.9106
▁음성	-10.9106
▁경기도	-10.9107
at	-10.9107
▁배치	-10.9127
▁초래	-10.9131
▁절대로	-10.9144
▁주가	-10.9145
느	-10.9151
▁절반	-10.9155
▁형사	-10.9161
쭉	-10.9162
▁어지고	-10.9164
▁는다면	-10.9168
셈	-10.9168
댁	-10.9175
▁적극	-10.9175
▁살인	-10.9182
▁잘못된	-10.9185
▁고대	-10.9187
▁것임	-10.9194
▁입구	-10.9196
풀이	-10.9198
턴	-10.9205
▁공정	-10.921
▁받아들여	-10.9211
조리	-10.9212
▁스포츠	-10.9221
▁중학교	-10.9224
살리	-10.924
▁입학	-10.9241
▁장난	-10.9244
▁자전거	-10.9267
▁선진국	-10.9272
변화	-10.9275
▁시고	-10.9276
▁슬픔	-10.9281
▁다며	-10.9282
▁소중	-10.9282
▁칭찬	-10.9282
▁기호	-10.9286
▁토대	-10.9294
헐	-10.9296
그러	-10.9299
▁대기업	-10.9305
표준	-10.9306
상자	-10.9307
샤	-10.9311
돕	-10.9312
뿌	-10.9333
▁보편적	-10.9341
▁운전	-10.9343
▁신기	-10.935
▁확정	-10.9351
▁창문	-10.9354
▁홍보	-10.9357
▁부모님	-10.936
▁에야	-10.936
덧	-10.937
톤	-10.9371
축제	-10.9373
▁의혹	-10.9376
▁남들	-10.9376
혁신	-10.9383
▁복제	-10.9383
▁되풀이	-10.94
금리	-10.9406
본부	-10.9409
▁라구	-10.9417
▁오반장	-10.9422
▁소주	-10.9427
감추	-10.943
▁비유	-10.9432
앓	-10.9433
곰	-10.9448
▁근본	-10.9453
▁날씨	-10.9453
▁가족들	-10.9455
▁임시	-10.9455
▁소외	-10.9461
누르	-10.9472
혁	-10.9473
▁모시	-10.9475
보고서	-10.9479
▁압력	-10.9482
스키	-10.9485
▁강요	-10.9488
▁대목	-10.9494
▁양쪽	-10.9505
▁비상	-10.9509
▁활성화	-10.951
온통	-10.9512
튼	-10.9522
▁정자	-10.9529
▁축소	-10.953
민들	-10.9543
▁수십	-10.9544
다시피	-10.9548
▁백제	-10.9552
▁글자	-10.9553
▁매력	-10.9556
▁한꺼번에	-10.9556
규범	-10.9559
▁평범	-10.9559
▁이중	-10.9566
▁분노	-10.9568
▁몇몇	-10.9572
세웠	-10.9585
▁도달	-10.9588
앞	-10.9589
▁구실	-10.959
든가	-10.9591
▁증명	-10.9601
다고	-10.9628
▁개입	-10.9632
K	-10.9632
▁발작	-10.9633
릿	-10.9634
▁대처	-10.9634
▁들어갈	-10.9636
▁어울리	-10.9637
분열	-10.964
키우	-10.9641
▁었다면	-10.9644
▁제거	-10.9648
길이	-10.965
룡	-10.9664
대장	-10.9665
여건	-10.9665
▁라디오	-10.967
▁솔직히	-10.9671
▁자아	-10.9672
관련	-10.9678
과목	-10.9679
▁내면	-10.9679
맛있	-10.9679
생명	-10.968
▁끄덕	-10.9682
어나	-10.9683
▁필요성	-10.9684
▁채택	-10.9687
▁보일	-10.9689
오리	-10.9689
▁통증	-10.9694
아픈	-10.9711
▁흔적	-10.9724
▁영감	-10.9725
여행	-10.9726
▁던져	-10.9728
▁가입	-10.9736
▁독자들	-10.9742
▁듯했	-10.9744
▁이탈리아	-10.9744
수단	-10.9746
바퀴	-10.9747
▁화장실	-10.9748
▁절망	-10.975
▁남겨	-10.9751
보증	-10.9773
덩이	-10.9773
▁글쎄	-10.9776
마당	-10.9785
뚝	-10.9788
▁도저히	-10.9792
▁반성	-10.9795
▁초점	-10.9804
▁다를	-10.9815
▁실질적	-10.9829
봤	-10.9832
▁택시	-10.9841
바이	-10.9842
▁인민	-10.9844
▁구두	-10.9846
▁어린이들	-10.9847
▁원고	-10.9854
텐	-10.9855
▁설득	-10.9855
▁이야	-10.9856
▁이상하	-10.9856
▁정성	-10.9856
▁정도였	-10.986
▁세계화	-10.9865
▁마구	-10.9865
핀	-10.9871
▁떨어졌	-10.9873
▁원시	-10.9875
어넣	-10.9886
릭	-10.9887
▁였으나	-10.9889
▁외면	-10.9897
▁논란	-10.99
리아	-10.9901
▁예측	-10.9902
▁이틀	-10.9908
▁하락	-10.9917
▁유치	-10.9923
▁외국인	-10.9927
▁정착	-10.9933
▁마무리	-10.9935
▁평양	-10.9936
경비	-10.9937
▁진술	-10.9941
▁초월	-10.9944
▁부근	-10.9946
보호	-10.9956
뿐	-10.9957
▁얼마든	-10.9961
▁울음	-10.9965
▁무시	-10.9967
▁아프리카	-10.9968
귀신	-10.9968
▁조상	-10.9981
▁이룩	-10.9983
오는	-10.9983
▁사망	-10.9984
밑	-10.9987
▁아랫	-10.9987
▁UN	-10.9991
▁수면	-10.9991
채권	-10.9992
▁넘어	-10.9999
▁병석이	-11.0001
▁적절	-11.0001
▁인수	-11.0004
▁줄이	-11.0008
세대	-11.0013
▁갈라	-11.0021
어주	-11.0021
또	-11.0022
시절	-11.0025
사원	-11.0025
사랑	-11.0028
▁지속적	-11.0028
▁버렸다	-11.0031
▁성숙	-11.0033
▁접촉	-11.0034
방울	-11.0038
▁일본인	-11.0039
너머	-11.0044
▁지라도	-11.0045
서류	-11.0045
▁자살	-11.0046
질러	-11.0046
▁인연	-11.0048
X	-11.0048
▁자세히	-11.0052
▁이십	-11.0053
랜	-11.0056
업무	-11.0063
▁엉뚱	-11.0065
무늬	-11.0065
▁그나마	-11.0066
▁가볍	-11.0068
us	-11.007
▁소수	-11.0071
아버지	-11.0072
▁동작	-11.0075
▁소프트웨어	-11.0081
▁구하	-11.0084
▁치열	-11.0085
틴	-11.0098
신탁	-11.0099
▁주일	-11.0112
▁부자	-11.0115
총장	-11.0115
▁과학기술	-11.0116
▁언덕	-11.0116
▁상상력	-11.0119
옹	-11.0122
빗	-11.0125
▁계속해	-11.0138
▁보급	-11.0139
변동	-11.0141
상담	-11.0142
뜬	-11.0147
씹	-11.0147
떠	-11.015
▁내려오	-11.0151
▁공통	-11.0152
가며	-11.0152
넓	-11.0155
▁기운	-11.0158
▁호랑이	-11.0163
▁세금	-11.0165
당초	-11.0168
▁세계적	-11.0173
식이	-11.018
▁눈빛	-11.0184
몰래	-11.0188
▁주지	-11.0189
▁결심	-11.0193
▁가로	-11.0195
푹	-11.0196
is	-11.0199
배운	-11.02
▁는지를	-11.0201
▁비극	-11.021
▁양반	-11.0219
▁보유	-11.0227
▁였는데	-11.0237
ro	-11.0237
▁어가는	-11.0238
▁저지	-11.0239
구상	-11.0242
행정	-11.0245
▁중얼거	-11.0248
▁농민들	-11.0257
▁우승	-11.0262
▁논쟁	-11.0265
▁돼지	-11.0267
▁권한	-11.027
작전	-11.0272
▁영향력	-11.0273
▁편안	-11.0273
연구원	-11.028
잉	-11.0285
보도	-11.0293
▁거절	-11.0295
▁방법이	-11.0311
▁그다지	-11.0317
▁중요성	-11.0321
성이	-11.0322
노선	-11.0323
외로	-11.0324
▁버릇	-11.0347
▁제사	-11.0352
ation	-11.0355
▁떠오	-11.0361
ol	-11.0364
▁낯선	-11.0364
서리	-11.0369
무섭	-11.037
▁믿음	-11.0374
▁왜곡	-11.0375
▁카메라	-11.038
▁날개	-11.0381
▁되돌아	-11.0381
▁워낙	-11.0383
▁말야	-11.0393
▁깜짝	-11.0396
▁정확히	-11.0397
▁가량	-11.04
▁서쪽	-11.0406
▁당당	-11.0407
▁비전	-11.0413
▁나선	-11.0415
실시하	-11.0422
낭	-11.0422
▁독점	-11.0423
▁일부러	-11.0426
선거	-11.0428
밖에	-11.0434
▁여지	-11.0435
▁확신	-11.0435
쌀	-11.0436
▁전면	-11.044
▁고유	-11.0441
▁당연	-11.0447
분석	-11.0447
▁논리적	-11.0447
물질	-11.0459
▁일반적인	-11.0476
사적	-11.0478
▁완전	-11.0478
도서관	-11.0484
감히	-11.0484
▁선발	-11.0485
▁일일	-11.0489
▁도덕	-11.049
▁날아	-11.0491
▁어서도	-11.0493
▁냐고	-11.0495
실장	-11.0502
▁부러	-11.0503
▁화장	-11.0503
재단	-11.051
▁신부	-11.051
럼	-11.0511
엿	-11.0512
▁아줌마	-11.0515
마케팅	-11.0515
▁아이디어	-11.0519
▁지면	-11.052
▁가방	-11.0521
▁인격	-11.0524
수익	-11.0532
룰	-11.0532
▁조그만	-11.0532
▁잃어버	-11.0532
▁대가	-11.0533
의료	-11.0533
껍질	-11.0533
▁시면	-11.0534
▁형님	-11.0542
co	-11.0544
흑	-11.0546
▁조용히	-11.0554
동안	-11.0555
▁가벼	-11.056
▁소화	-11.056
▁느라고	-11.0562
▁가구	-11.0565
걔	-11.0565
▁물체	-11.0566
▁리얼리즘	-11.0566
짖	-11.0566
▁부상	-11.0578
▁노예	-11.0583
▁젊은이들	-11.0589
▁남기	-11.059
▁제법	-11.0598
▁았으나	-11.0601
▁직원들	-11.0606
▁이성	-11.0609
▁부정적	-11.0612
▁없애	-11.0614
▁무한	-11.0618
▁확실히	-11.063
▁만남	-11.0635
▁가치관	-11.0635
▁답답	-11.0638
▁절실	-11.0638
▁백여	-11.0649
운용	-11.0654
▁지하철	-11.0656
▁었으니	-11.0669
▁상관	-11.0669
▁오른쪽	-11.0671
네트	-11.0677
▁육체	-11.0681
가격	-11.0681
▁곳곳	-11.069
도로	-11.0693
▁어쩌	-11.0696
▁관객	-11.0698
▁도덕적	-11.0701
▁사기	-11.0706
▁식량	-11.0707
▁계시	-11.0718
▁해소	-11.0722
▁예술가	-11.0724
▁욕심	-11.0727
첨	-11.0727
▁서울시	-11.0733
▁불가피	-11.074
▁이어	-11.0744
▁배제	-11.0745
▁둘러싸	-11.0746
▁충실	-11.0747
▁저작권	-11.0747
▁일곱	-11.075
▁확립	-11.0758
지는	-11.0758
▁흡수	-11.0759
▁이용한	-11.0765
▁진보	-11.0779
▁포장	-11.0779
▁식구	-11.0781
사고	-11.0786
두고	-11.0791
▁비하	-11.0793
숙이	-11.0797
▁자동	-11.0808
▁동쪽	-11.0809
▁인용	-11.0813
▁인공	-11.0813
프라	-11.083
▁참고	-11.0835
르르	-11.084
얽	-11.0844
취해	-11.0845
▁삼십	-11.0845
▁아가씨	-11.0847
수리	-11.0849
셀	-11.0862
▁일방적	-11.0862
▁뒤집	-11.0868
▁뛰어난	-11.0873
▁저렇	-11.0881
▁추억	-11.0882
▁동반	-11.0886
고기	-11.0889
▁술집	-11.0893
가요	-11.09
▁우물	-11.0902
저고리	-11.0902
▁까지나	-11.0907
음악	-11.0909
▁한동안	-11.091
▁지상	-11.0919
전화	-11.0923
댔	-11.0924
의회	-11.0929
컬	-11.0932
으리라	-11.0948
대학원	-11.0949
▁일체	-11.095
▁내내	-11.0956
독재	-11.096
▁들어	-11.096
▁최선	-11.0965
▁비닐	-11.0974
만두	-11.0976
▁모색	-11.098
▁신세대	-11.0981
캠	-11.0985
사태	-11.0985
느니	-11.0992
▁각기	-11.0993
▁헤어	-11.0996
텅	-11.1004
▁스트레스	-11.1004
▁머릿속	-11.1005
구매	-11.1014
▁질병	-11.1022
▁양심	-11.1023
▁터뜨	-11.1026
▁천원	-11.103
대륙	-11.1031
▁고집	-11.1039
리키	-11.1039
작용	-11.104
▁사로잡	-11.104
▁부드러	-11.1042
헤	-11.1045
▁기르	-11.1045
▁장점	-11.1063
▁직후	-11.1065
흔	-11.1076
베르	-11.1087
올리	-11.1088
단지	-11.1093
▁가르	-11.1096
스터	-11.1104
연수	-11.1105
▁애정	-11.1105
▁무력	-11.1116
▁대규모	-11.1117
▁투입	-11.1118
동성	-11.1121
륜	-11.113
▁방학	-11.1132
▁기다려	-11.1136
어선	-11.1137
▁주부	-11.1146
▁표면	-11.1149
▁한강	-11.1149
▁그까	-11.115
▁시오	-11.1154
놀	-11.1159
▁달성	-11.1175
▁드러난	-11.1177
▁충분	-11.1178
▁감안	-11.1183
랗	-11.1185
페이지	-11.1186
▁시사	-11.1187
허가	-11.1187
▁두꺼	-11.119
▁성취	-11.1198
뜯	-11.1199
▁사방	-11.1204
▁참조	-11.1217
▁녹음	-11.1226
▁빨간	-11.1227
업자	-11.1228
▁발굴	-11.1229
다닌	-11.1229
▁불빛	-11.1239
마르	-11.1241
▁위장	-11.1245
▁아라	-11.1252
▁보상	-11.1257
▁반발	-11.1262
▁이쪽	-11.1268
선생님	-11.1269
▁투명	-11.1271
▁입시	-11.1271
겠지요	-11.1272
▁바른	-11.1272
am	-11.1275
▁붕괴	-11.1277
규모	-11.1286
▁때였	-11.129
▁억제	-11.1293
▁움직	-11.1293
▁출근	-11.1304
▁저장	-11.1306
스레	-11.1308
▁신발	-11.1312
▁어차피	-11.1313
업종	-11.1313
어요	-11.1317
▁선전	-11.1317
▁정지	-11.1317
v	-11.132
▁전날	-11.1324
기법	-11.1325
으나	-11.1331
뱉	-11.1332
▁가라앉	-11.1332
▁충족	-11.1333
▁실력	-11.1339
▁충분한	-11.1342
▁철저히	-11.1342
경찰서	-11.1347
급한	-11.1355
부진	-11.1364
차림	-11.1366
끌려	-11.1366
▁하나씩	-11.1371
▁으려는	-11.1374
▁게는	-11.1379
번호	-11.1379
뒤	-11.1381
릉	-11.1382
▁문제들	-11.1384
▁교사들	-11.1385
유지	-11.139
▁미루	-11.1393
▁분들	-11.1393
▁치르	-11.1397
▁일치	-11.1398
▁몰아	-11.1402
얹	-11.1405
더군요	-11.1409
▁실상	-11.1417
▁자녀	-11.1424
주사	-11.143
솟	-11.1431
▁제정	-11.1433
형태	-11.1435
▁일들	-11.144
젓	-11.1442
▁양성	-11.1443
▁주기	-11.1443
▁남한	-11.1457
▁해체	-11.1462
▁절대적	-11.1467
▁완화	-11.1469
▁천여	-11.1475
덤	-11.1477
▁강력	-11.1479
컵	-11.1481
기보다	-11.1481
원이	-11.1481
▁대폭	-11.1499
▁종업원	-11.15
▁공중	-11.1504
▁착각	-11.1506
▁나란히	-11.1512
정작	-11.1523
▁보관	-11.1528
▁중시	-11.1534
▁예수	-11.1534
▁종종	-11.1538
▁임명	-11.1542
▁생성	-11.1543
▁급격	-11.1544
▁연애	-11.1551
▁똑같이	-11.1552
대학교	-11.1555
국민	-11.1555
▁골라	-11.1555
▁독서	-11.1561
▁부패	-11.1566
비치	-11.1566
▁접어	-11.1568
▁장군	-11.1574
성분	-11.1575
봅	-11.1594
▁반사	-11.1598
실적	-11.1609
▁화가	-11.161
▁중소기업	-11.161
괄	-11.1612
덩어리	-11.1613
▁영웅	-11.1616
▁사라져	-11.1617
▁통계	-11.162
만치	-11.1624
▁날이	-11.1627
▁대접	-11.1643
장님	-11.1643
돋	-11.1661
몬	-11.167
▁거꾸로	-11.1671
▁존중	-11.1683
▁진전	-11.1685
융	-11.1688
찔	-11.1688
청구	-11.1689
옵	-11.169
▁궁극적	-11.169
▁또다시	-11.169
댄	-11.1693
ra	-11.1695
▁향기	-11.1696
▁의도	-11.1697
자산	-11.1703
발효	-11.1703
▁화제	-11.1703
물들	-11.1709
불가	-11.1719
U	-11.172
▁응원	-11.1726
콤	-11.1728
고사	-11.1731
▁선수들	-11.1735
▁등등	-11.1736
▁무관	-11.1739
▁인권	-11.1744
처분	-11.1746
▁고추	-11.1753
▁각국	-11.1755
분쟁	-11.176
▁번씩	-11.176
▁덕분	-11.1775
꾀	-11.1786
개념	-11.1794
▁진화	-11.1794
같이	-11.1798
렵	-11.18
de	-11.1804
맙	-11.1805
▁유전	-11.181
개편	-11.1824
▁더듬	-11.1829
▁실체	-11.1833
▁시청	-11.1841
진료	-11.1842
▁본인	-11.1851
▁당황	-11.1852
완전한	-11.1856
▁다행	-11.186
▁빛나	-11.1866
▁측정	-11.1872
차원	-11.1877
▁알맞	-11.1882
▁즉시	-11.1887
보살	-11.1889
▁충동	-11.1896
▁그리스	-11.1898
▁하나하나	-11.1905
▁집권	-11.1921
▁내려다보	-11.1922
▁대선	-11.1924
기로	-11.1928
▁던가	-11.1929
▁존경	-11.193
▁우리말	-11.1932
▁우연	-11.1932
▁유교	-11.1935
▁숙제	-11.1942
아보	-11.1942
▁네덜란드	-11.1942
▁안개	-11.1943
▁이를	-11.1943
방위	-11.1944
▁손바닥	-11.1954
▁무심	-11.1958
▁목사	-11.196
갚	-11.1962
▁호기심	-11.1962
▁동료	-11.1965
▁즐겨	-11.1966
▁저쪽	-11.1969
▁서서	-11.1973
te	-11.1977
ur	-11.1977
▁한창	-11.1978
앤	-11.1981
분명한	-11.1983
▁눌러	-11.1983
▁좌절	-11.1983
▁바보	-11.1984
▁우연히	-11.1988
▁인쇄	-11.1988
▁실감	-11.1994
▁느냐고	-11.2014
▁솔직	-11.2017
▁예방	-11.2018
▁고요	-11.2019
마비	-11.202
▁으러	-11.2025
▁현우	-11.2025
▁증대	-11.2027
▁고쳐	-11.203
▁폐지	-11.2035
▁으시	-11.204
츰	-11.2041
▁정원	-11.2051
끔	-11.2053
웃	-11.2062
▁충돌	-11.2063
논리	-11.2066
▁쏟아	-11.2071
현실	-11.2076
▁초대	-11.2082
▁부위	-11.2085
중심	-11.209
▁신선	-11.2094
몸	-11.2094
▁공주	-11.2095
▁명예	-11.2095
간부	-11.2098
혜택	-11.2103
거니	-11.2103
▁환자들	-11.2107
▁꼬마	-11.2107
▁악화	-11.2108
▁중년	-11.2108
▁직전	-11.2109
▁데도	-11.2121
▁깨끗	-11.2122
▁과일	-11.2125
▁취업	-11.2127
▁넘기	-11.2132
▁별도	-11.2137
뜻하	-11.2144
▁부실	-11.2146
Y	-11.2161
▁항의	-11.2163
무려	-11.2166
▁원자	-11.2174
▁공감	-11.2176
▁민자당	-11.2181
▁떠들	-11.2186
▁갖춘	-11.2188
사관	-11.2189
무대	-11.2196
▁육성	-11.2199
▁가버넌스	-11.2201
▁영원히	-11.2204
껴	-11.2208
▁염려	-11.2208
▁심화	-11.2216
▁물결	-11.2222
▁두려움	-11.2222
솜씨	-11.2223
▁누리	-11.2226
▁매년	-11.2235
▁고용	-11.2236
슴	-11.2237
▁궁금	-11.2238
리스	-11.2238
뉘	-11.224
▁분기	-11.224
론적	-11.2241
▁인터뷰	-11.2242
공화국	-11.2242
▁성호	-11.2243
▁후기	-11.2249
▁세계관	-11.2251
▁유발	-11.2253
▁마른	-11.2255
▁석유	-11.2255
▁방해	-11.226
▁일요일	-11.2262
▁첨단	-11.2264
▁우린	-11.2276
핑	-11.2281
신경	-11.2285
▁경고	-11.2292
샘	-11.23
▁전체적	-11.2307
새겨	-11.2308
▁다희	-11.231
▁귀국	-11.2312
쪼	-11.2321
▁정말로	-11.2331
강도	-11.2331
▁조기	-11.2336
클럽	-11.2339
▁작정	-11.2343
▁피로	-11.2345
▁망설	-11.235
▁발길	-11.2351
▁후회	-11.2353
▁광장	-11.2356
▁대결	-11.2375
▁안방	-11.2376
▁채워	-11.2387
▁보완	-11.2396
어가	-11.2401
▁막연	-11.2407
▁월급	-11.2408
구조조정	-11.241
▁선진	-11.2412
럭	-11.2413
▁잘라	-11.2417
▁울리	-11.2418
▁토끼	-11.2428
싸움	-11.243
문서	-11.2436
▁스타일	-11.2438
코스	-11.244
회계	-11.2449
보다	-11.2449
▁다름	-11.2452
▁어버린	-11.2467
▁사찰	-11.247
as	-11.2471
▁개국	-11.2483
텔	-11.2483
▁함부로	-11.2488
▁부처님	-11.2488
▁그후	-11.2494
▁반가	-11.2495
▁초청	-11.2495
▁안쪽	-11.2495
es	-11.2496
▁창조적	-11.2501
의사	-11.2507
▁뒷받침	-11.2509
▁먼지	-11.2512
중앙	-11.2514
▁노출	-11.2516
▁개체	-11.2517
▁야단	-11.2518
▁자국	-11.2529
컸	-11.2529
▁곧바로	-11.2529
▁즐거움	-11.253
▁최대한	-11.2532
▁예쁜	-11.2537
운영	-11.2538
겠다	-11.2539
봉투	-11.2541
▁범주	-11.2546
▁곤란	-11.2549
▁가려	-11.255
▁일주일	-11.2551
▁았어요	-11.2556
▁조용	-11.2559
니스	-11.2565
킹	-11.2571
헬	-11.2571
▁비영리단체	-11.2571
▁정식	-11.2572
▁터져	-11.2583
끌	-11.2584
삽	-11.2587
▁었나	-11.2587
곽	-11.259
om	-11.2592
▁었으므로	-11.2592
휴가	-11.2596
▁피곤	-11.2597
▁대학생	-11.2607
▁내외	-11.261
쑤	-11.2619
▁개별	-11.2622
▁중반	-11.2631
으니	-11.2639
모니	-11.264
기금	-11.2642
▁모으	-11.2647
▁까지만	-11.2648
렬	-11.2649
▁명분	-11.265
▁실망	-11.2654
▁고양이	-11.2654
금액	-11.2655
▁지난달	-11.2658
항목	-11.2662
▁두번째	-11.2663
단체들	-11.2678
▁간직	-11.2679
▁신중	-11.268
▁단정	-11.2686
놔	-11.2698
▁타이	-11.2698
▁전했	-11.2698
맡	-11.27
▁물리	-11.2706
▁침해	-11.2709
▁철수	-11.2716
▁본질적	-11.2717
▁그니까	-11.2718
협정	-11.2725
미터	-11.2738
시즌	-11.2741
▁현행	-11.2752
기에	-11.2752
▁배달	-11.2755
▁바란	-11.2764
▁이놈	-11.2769
▁패배	-11.2769
▁자식들	-11.2773
▁그분	-11.2779
▁대변	-11.2782
던데	-11.2784
▁제의	-11.2792
폰	-11.2804
니까요	-11.2807
쓴	-11.2812
인종	-11.2818
소송	-11.282
프리	-11.2822
▁김영	-11.2825
줍	-11.2826
▁에서나	-11.2832
▁키워	-11.2832
철이	-11.2833
▁만으로도	-11.2833
업체들	-11.2836
▁명칭	-11.2836
뿔	-11.2847
콧	-11.2847
▁부지런	-11.2848
▁보람	-11.2848
▁해명	-11.2858
▁모방	-11.2859
▁파업	-11.2862
▁협의	-11.2862
후보	-11.2866
▁물가	-11.2869
▁자존심	-11.2869
▁약물	-11.2869
▁동정	-11.2872
▁총무	-11.2877
방안	-11.2879
▁신문사	-11.2882
▁지정	-11.2884
흠	-11.289
▁무언가	-11.289
▁손해	-11.2891
▁거짓	-11.2894
▁허락	-11.2898
잡이	-11.29
▁동경	-11.2904
컨	-11.2906
▁소비자들	-11.291
se	-11.291
▁위로	-11.291
▁다짐	-11.2921
▁비추	-11.2922
▁운동장	-11.2925
두르	-11.2925
▁대외	-11.2928
▁담겨	-11.2931
올림픽	-11.2934
▁품이	-11.2934
▁건석	-11.2937
▁혁진	-11.2938
▁수백	-11.2941
▁끌어	-11.2941
▁세호	-11.2942
미술관	-11.2942
▁출현	-11.2944
▁복도	-11.2949
마는	-11.2952
▁대량	-11.2954
열차	-11.2958
▁장래	-11.2984
▁깨끗이	-11.2993
▁직접적	-11.2994
부터	-11.2997
▁폭발	-11.2997
테이프	-11.2999
▁발상	-11.3
▁백성	-11.3003
어낸	-11.3006
라면	-11.3012
▁건네	-11.3013
▁입증	-11.3014
▁늘어놓	-11.3025
▁불쌍	-11.3026
▁요약	-11.303
리어	-11.3035
▁특이	-11.3036
협의회	-11.3042
꿰	-11.3043
▁데려	-11.3044
기록	-11.3048
▁집착	-11.305
▁햇빛	-11.3065
▁애인	-11.307
▁문학적	-11.3073
▁촉구	-11.3076
▁무시하	-11.3078
저리	-11.308
▁기자들	-11.3091
▁봉건	-11.3093
▁무수	-11.3095
▁복식	-11.3098
▁교육부	-11.3098
▁적합	-11.3098
▁다거나	-11.3102
▁이스라엘	-11.3109
th	-11.3116
망치	-11.3125
▁일생	-11.3126
▁넘겨	-11.3131
▁환율	-11.3135
▁었지요	-11.3138
평면	-11.314
▁온도	-11.3144
▁그놈	-11.3144
▁을지도	-11.3151
▁저절	-11.3154
▁현관	-11.3156
▁요즈음	-11.3156
▁성진	-11.3166
▁부당	-11.3169
▁보조	-11.3173
▁법적	-11.3179
코리아	-11.3181
et	-11.3182
▁배워	-11.3183
▁창출	-11.3186
폴	-11.3189
▁계승	-11.3191
팬	-11.3194
▁의사소통	-11.3198
▁어리석	-11.3199
▁담임	-11.3205
▁차전	-11.3207
▁오해	-11.3208
학계	-11.3214
▁사흘	-11.3215
▁식구들	-11.3216
긁	-11.322
▁고위	-11.3223
▁비단	-11.3227
▁적자	-11.3233
의미론	-11.3245
순이	-11.3247
▁덧붙였	-11.3247
▁안경	-11.3258
팽	-11.3263
▁흔들리	-11.3264
▁단백질	-11.3265
▁자율성	-11.3265
▁부끄러	-11.3269
▁전년	-11.327
판매	-11.3271
경이	-11.3272
찍	-11.3279
닝	-11.3287
▁전세계	-11.3287
▁암시	-11.3288
▁이씨	-11.3289
▁버티	-11.3291
▁선호	-11.3292
찢	-11.3294
▁감옥	-11.3298
▁서만	-11.3302
▁취미	-11.3306
▁야당	-11.3306
▁마음속	-11.3309
ㄱ	-11.331
뿐이	-11.3313
ac	-11.3323
▁성실	-11.3323
▁간주	-11.3328
▁변형	-11.3331
부지	-11.3331
:	-11.3332
▁똑똑	-11.3332
멜	-11.3332
송이	-11.3333
▁답변	-11.3336
▁꾸준	-11.3336
▁단다	-11.3345
▁교감	-11.3347
▁여가	-11.335
▁교양	-11.3352
▁공자	-11.3353
뚱	-11.3355
덴	-11.3355
▁김대중	-11.3355
▁았으며	-11.3356
▁파견	-11.3363
랴	-11.3368
▁근원	-11.3374
킴	-11.3378
씬	-11.3378
어음	-11.338
기계	-11.3381
▁너희들	-11.3381
▁시체	-11.3381
▁부족하	-11.3383
▁차단	-11.3383
▁천만원	-11.3396
려는	-11.3398
▁거론	-11.3405
▁사법	-11.3407
▁창업	-11.3408
▁식탁	-11.3408
푸르	-11.341
▁따져	-11.3415
장비	-11.3417
책임	-11.3417
▁전설	-11.3418
▁출입	-11.3422
댐	-11.3423
▁그쪽	-11.3432
▁생생	-11.3435
▁터이	-11.3439
관행	-11.344
▁국경	-11.3445
▁디지털	-11.3446
▁부도	-11.3448
ia	-11.3448
▁용서	-11.345
▁다행히	-11.3455
소매	-11.346
▁그중	-11.3463
어먹	-11.347
▁밀접	-11.3471
▁거다	-11.3471
힘	-11.3475
멍	-11.3475
▁부드	-11.3479
▁치밀	-11.3488
▁안타까	-11.3493
▁인근	-11.3494
▁자치	-11.3496
▁수원	-11.3503
영장	-11.3508
▁번쩍	-11.3519
쾌	-11.3522
▁자각	-11.3523
▁실로	-11.3526
▁거치	-11.3529
바다	-11.353
▁명백	-11.3536
▁cm	-11.3539
출판사	-11.3541
▁미스	-11.3541
▁완벽	-11.3544
▁단일	-11.3545
▁요새	-11.355
▁하나님	-11.3552
경력	-11.3553
▁달아	-11.3555
쉽	-11.3558
냥	-11.3559
데이	-11.356
▁분포	-11.356
줘	-11.3561
뿜	-11.3561
얗	-11.3561
▁도중	-11.3564
▁편의	-11.3567
▁농약	-11.3571
▁양복	-11.3576
▁시작해	-11.3581
중계	-11.3581
▁신당	-11.3588
▁헤아	-11.36
▁정기	-11.36
위성	-11.3602
▁주저앉	-11.3608
▁내다보	-11.3608
▁국방	-11.361
▁장르	-11.3613
반장	-11.3614
▁연간	-11.3615
상사	-11.3618
트럭	-11.3619
감각	-11.362
▁일간	-11.3621
▁출산	-11.3622
▁무료	-11.3623
타자	-11.3624
▁대만	-11.3629
▁었다가	-11.3629
방향	-11.363
꾹	-11.3631
▁미적	-11.3633
▁일관	-11.3633
플레이	-11.3635
▁거주	-11.3638
▁추측	-11.3639
▁임무	-11.3646
형성	-11.3648
▁품질	-11.365
▁소나무	-11.3651
▁국제적	-11.3652
빌딩	-11.3654
공단	-11.3659
좋	-11.3665
전문	-11.3665
▁신장	-11.367
▁황금	-11.3671
▁음이	-11.3675
▁어째서	-11.3677
진영	-11.3678
▁스승	-11.3683
가질	-11.3689
BC	-11.3692
▁정체	-11.3695
▁경위	-11.3696
쉴	-11.3701
▁김일성	-11.3701
섬유	-11.3704
▁견제	-11.3708
▁초반	-11.371
▁대리	-11.3712
x	-11.3714
▁당선	-11.3717
잔치	-11.373
▁지가	-11.3731
지배	-11.3732
▁정보화	-11.3739
▁주말	-11.3739
▁자발적	-11.3743
▁효율적	-11.3744
켓	-11.3748
학회	-11.375
▁자칫	-11.3753
케이	-11.376
맡기	-11.3764
▁피해자	-11.3768
횡	-11.377
엠	-11.3771
▁생각이	-11.3772
심각하	-11.3772
▁제국주의	-11.3774
▁철도	-11.3774
▁지각	-11.3775
▁반짝	-11.3782
▁건전	-11.3785
음에도	-11.3789
▁작가들	-11.379
썼	-11.379
퍽	-11.3795
준비	-11.3795
▁주관	-11.3797
▁청산	-11.38
▁심리적	-11.3803
진흥	-11.3804
▁다가는	-11.381
시리즈	-11.3815
▁메시지	-11.3819
▁두어	-11.3819
▁헤매	-11.3823
▁어휘	-11.3828
▁명확	-11.3829
▁민속	-11.3837
▁일어서	-11.3843
▁고백	-11.3843
점검	-11.3844
▁전원	-11.3846
▁채소	-11.385
정보통신	-11.3855
▁이랑	-11.3859
버리	-11.3865
▁발음	-11.3866
샀	-11.3866
▁물고기	-11.3872
겠죠	-11.3872
듯이	-11.3873
엮	-11.389
▁치우	-11.3894
▁타인	-11.3904
▁때리	-11.3907
▁글씨	-11.3913
▁살아남	-11.3922
▁길러	-11.3928
▁막상	-11.3935
▁축적	-11.3937
di	-11.3948
▁노동자들	-11.3949
나리	-11.3949
상이	-11.3949
▁양자	-11.3959
로스	-11.3965
▁대충	-11.3966
베이	-11.3967
▁후자	-11.3977
▁신랑	-11.3977
톱	-11.3982
▁진입	-11.3983
▁학부모	-11.3986
▁넷째	-11.3986
▁잊어버	-11.3986
▁산소	-11.3987
▁대변인	-11.399
안보	-11.3991
낚시	-11.3997
▁변해	-11.3998
▁제재	-11.3999
큰	-11.4
▁자란	-11.4002
▁뛰어나	-11.4006
짱	-11.4008
넷	-11.401
▁햇살	-11.401
꺼	-11.4014
▁얼음	-11.4014
▁관습	-11.402
▁친절	-11.4023
▁넘치	-11.4025
타임	-11.4028
▁엉덩이	-11.4035
▁필연적	-11.4035
▁쓸쓸	-11.4036
▁괴롭	-11.4036
드렸	-11.4036
▁향한	-11.4036
동무	-11.4047
▁미처	-11.4047
▁속성	-11.405
배웠	-11.4051
붙인	-11.4052
ve	-11.4056
어리	-11.4056
▁파도	-11.4057
▁광범위	-11.406
즘	-11.4065
▁간섭	-11.4066
▁남부	-11.4069
el	-11.4074
▁스물	-11.4082
ter	-11.4082
▁한가운데	-11.4083
▁당대	-11.4083
▁겠는데	-11.4084
▁급속	-11.4085
언론	-11.4088
▁다름없	-11.409
▁이혼	-11.4101
▁선명	-11.4103
▁원망	-11.4103
▁살짝	-11.4106
아리	-11.4106
▁긴급	-11.4108
으로써	-11.4109
▁증언	-11.4114
▁녹색	-11.4116
▁억울	-11.4117
륙	-11.412
▁만명	-11.4121
▁대두	-11.4121
▁안타	-11.4126
▁감당	-11.4127
넘어서	-11.4128
정비	-11.413
▁아졌다	-11.4132
▁획득	-11.4132
▁종로	-11.4132
▁짜증	-11.4136
▁작은	-11.4138
▁예쁘	-11.414
▁아끼	-11.4141
▁여러분들	-11.4142
▁아지고	-11.4143
▁오류	-11.4147
모집	-11.4149
▁천재	-11.4152
롬	-11.4156
뱀	-11.4156
씨름	-11.4158
▁사냥	-11.4158
▁거실	-11.417
▁젊은이	-11.4174
▁현금	-11.4176
▁전신	-11.4179
▁햇볕	-11.4181
▁강원도	-11.4181
▁시비	-11.4183
▁거칠	-11.4184
▁찾아보	-11.4187
장애인	-11.4187
▁약화	-11.4191
▁제도적	-11.42
느냐는	-11.4202
▁달래	-11.4202
냉장고	-11.4206
랜드	-11.4211
자동차	-11.4213
거였	-11.4216
▁행복한	-11.4216
▁렀다	-11.4225
▁화자	-11.4228
▁열매	-11.4235
▁휴식	-11.4237
▁붙들	-11.424
굶	-11.4252
려놓	-11.4255
탔	-11.4255
▁KBS	-11.4255
▁천지	-11.4256
▁인형	-11.4259
▁서너	-11.426
▁작자	-11.4262
▁배출	-11.4264
▁관여	-11.4266
▁일년	-11.4272
▁대꾸	-11.4273
▁건지	-11.4273
▁구호	-11.4277
왕조	-11.4278
▁한정	-11.428
▁한달	-11.4284
속한	-11.4285
아나	-11.4289
생들	-11.429
드릴	-11.4294
막히	-11.43
▁불신	-11.4303
냄	-11.4303
▁텍스트	-11.4305
거니와	-11.4307
▁맥락	-11.4307
학습	-11.4311
▁학술	-11.4316
▁비명	-11.432
지수	-11.4322
▁올렸	-11.4326
갱	-11.433
톨	-11.433
중독	-11.4331
▁친척	-11.4336
근로자	-11.4336
▁통상	-11.4341
▁의복	-11.4344
▁화해	-11.4345
사무소	-11.4346
▁유물	-11.4348
▁그애	-11.4349
▁이론적	-11.4354
뺨	-11.4355
▁토요일	-11.4355
▁아무튼	-11.4357
▁자신감	-11.4358
▁냉전	-11.4363
웨	-11.4369
ent	-11.4371
▁흘러나	-11.4374
동물	-11.4376
떴	-11.438
태평양	-11.438
▁여관	-11.4386
▁서부터	-11.439
il	-11.4395
▁전파	-11.4401
▁벗어	-11.4403
▁열정	-11.4403
tion	-11.4407
▁목욕	-11.4409
면적	-11.4412
극단	-11.4413
부담	-11.4415
담당	-11.4417
▁끝없	-11.4419
사지	-11.4423
▁뛰어들	-11.4424
현장	-11.4429
▁업적	-11.443
▁포인트	-11.443
평론	-11.4432
답니다	-11.4432
▁로도	-11.4433
붕	-11.4433
▁유용	-11.4439
▁겠느냐	-11.444
▁체결	-11.4441
자락	-11.4442
▁선보	-11.4445
핏	-11.4446
▁여간	-11.4447
▁커지	-11.4448
▁남북한	-11.445
줌	-11.445
동포	-11.4452
정된	-11.4454
닉	-11.4455
▁었는가	-11.4455
▁어지지	-11.4458
and	-11.4459
▁벌떡	-11.446
▁신철이	-11.446
▁심해	-11.4465
▁소박	-11.447
▁개설	-11.4474
▁of	-11.4476
구리	-11.4478
▁간접	-11.448
▁김정	-11.4482
▁의원들	-11.4484
▁차려	-11.4485
▁섭취	-11.4487
▁만주	-11.45
지냈	-11.4501
▁에다가	-11.4502
고교	-11.4507
▁억지로	-11.4509
ed	-11.4512
▁신세	-11.4516
▁해숙	-11.4517
▁배려	-11.4525
▁우울	-11.4526
▁아파	-11.4531
▁유일	-11.4534
▁바닷가	-11.4536
▁민감	-11.4537
▁지옥	-11.4539
▁색채	-11.4542
▁전남	-11.4544
▁설사	-11.455
모양	-11.4554
▁이튿날	-11.4557
둬	-11.4557
기야	-11.4557
과제	-11.4559
바늘	-11.4562
▁경주	-11.4563
국수	-11.4563
the	-11.4564
▁영원한	-11.4567
채널	-11.4569
품목	-11.4573
▁한데	-11.4577
▁맞이	-11.458
▁걸까	-11.4581
캔	-11.4582
▁생태계	-11.4582
라운드	-11.4583
하우스	-11.4583
▁터지	-11.4583
▁아무렇	-11.4584
▁부작용	-11.4588
▁이걸	-11.4593
보건	-11.4593
사귀	-11.4596
책임자	-11.4605
아온	-11.4607
솥	-11.4608
▁유난히	-11.4608
▁부족한	-11.4611
뱅	-11.4615
▁구해	-11.4616
la	-11.4618
▁어야만	-11.4624
▁원형	-11.4628
▁시간이	-11.463
▁쏟아져	-11.4636
▁올라갔	-11.4637
▁지경이	-11.4638
디다	-11.4638
ul	-11.4638
▁무장	-11.4643
▁어색	-11.4643
▁필수적	-11.4643
▁입각	-11.4648
▁종교적	-11.4654
▁농담	-11.4665
트리	-11.4669
총재	-11.4671
▁신념	-11.4676
귀한	-11.4677
▁구성원	-11.4685
롤	-11.4685
피고인	-11.4687
▁웠던	-11.4687
▁처벌	-11.4692
▁잡혀	-11.4697
풍토	-11.4701
▁드나	-11.4704
▁원천	-11.4713
▁영순이	-11.4713
▁춘기	-11.4713
▁도둑	-11.4715
▁종사	-11.4728
컴	-11.4737
높	-11.474
▁영문	-11.4741
▁후원	-11.4745
▁유혹	-11.4746
▁본능	-11.4751
▁유산	-11.4754
▁작품들	-11.4754
동맹	-11.4754
▁단독	-11.4754
▁외국어	-11.4756
어머니	-11.476
▁주간	-11.476
▁하느님	-11.4763
▁비교해	-11.4764
▁점령	-11.4766
▁실행	-11.4767
▁응답	-11.4767
▁다든가	-11.477
▁마감	-11.4777
▁돌아다	-11.4786
·	-11.4789
▁안팎	-11.479
▁연계	-11.479
▁순자	-11.4796
▁일행	-11.4808
▁군인	-11.4809
▁갔다	-11.4812
덩	-11.4814
놨	-11.4816
상가	-11.4817
▁었으니까	-11.4817
▁혈액	-11.4817
▁파란	-11.4818
▁본성	-11.4821
돌이	-11.4824
▁께서는	-11.483
▁주차	-11.483
▁밤새	-11.4832
▁결정적인	-11.4837
▁형상	-11.484
▁우산	-11.4844
▁사나이	-11.4845
▁변명	-11.4846
▁향수	-11.4847
▁특유	-11.4849
디오	-11.4852
▁져서	-11.4862
유신	-11.4863
업소	-11.4865
네요	-11.4866
고리	-11.4866
▁주력	-11.4873
▁폐쇄	-11.4873
교육청	-11.4876
엎	-11.4876
▁합격	-11.4876
▁이불	-11.4887
▁퍼져	-11.4901
▁홀로	-11.4905
▁소지	-11.4907
▁는데요	-11.4908
▁불길	-11.4909
▁증시	-11.4911
▁조명	-11.4912
▁정치인	-11.4913
냄새	-11.4914
릅	-11.4915
젤	-11.492
▁오십	-11.492
▁IMF	-11.4921
▁아리스토텔레스	-11.4921
▁승부	-11.4936
▁방어	-11.4943
▁제발	-11.4946
▁딱딱	-11.4949
▁런던	-11.4954
▁따름	-11.4954
▁라서	-11.4955
▁어가고	-11.4956
▁복합	-11.4963
▁한잔	-11.4969
▁얘기해	-11.4972
궐	-11.4974
▁김영삼	-11.4975
▁탈출	-11.4981
▁훈아	-11.4983
▁주재	-11.4984
▁발달하	-11.4989
고루	-11.4992
▁건립	-11.4993
▁요란	-11.4998
▁어내는	-11.4999
띤	-11.5001
▁말없이	-11.5001
젠	-11.5001
펀드	-11.5003
▁애초	-11.5003
동네	-11.5005
▁보안	-11.5015
▁영광	-11.5021
▁마누라	-11.5028
오로지	-11.5029
▁인지	-11.5031
▁부재	-11.5032
▁기와	-11.5032
▁박수	-11.5032
▁여학생	-11.5035
▁차가	-11.5036
▁농부	-11.5038
주의자	-11.5038
공학	-11.504
제조업	-11.5041
배우	-11.5041
▁선생님들	-11.5051
빤	-11.5054
▁모자라	-11.5055
▁냐는	-11.5057
▁어느날	-11.5058
의학	-11.5058
▁어주는	-11.5066
▁아쉬	-11.5073
▁자취	-11.5073
▁실내	-11.5074
▁인물들	-11.5074
▁국토	-11.5075
▁근대화	-11.5076
▁후배	-11.5076
훔	-11.5081
틱	-11.5081
초등학교	-11.5082
▁인간들	-11.5082
침체	-11.5084
코드	-11.5088
▁구원	-11.5099
▁거죠	-11.51
▁따라가	-11.5102
▁비판적	-11.5103
▁그리구	-11.5104
▁풀리	-11.5108
▁얼핏	-11.5108
▁홍콩	-11.511
▁자율적	-11.5113
▁생일	-11.5114
궤	-11.5123
ine	-11.5124
와주	-11.513
▁올린	-11.513
뀐	-11.5135
호르몬	-11.5135
▁예비	-11.5135
요건	-11.5139
▁등지	-11.5141
▁두려	-11.5141
▁깨끗한	-11.5141
▁벽돌	-11.5142
▁성명	-11.5142
▁수석	-11.5143
▁손님들	-11.5145
▁포도	-11.5151
▁부활	-11.5151
▁감싸	-11.5152
▁노인들	-11.5159
Q	-11.5162
▁보자	-11.5162
▁정리해	-11.5164
▁강렬	-11.5165
▁신사	-11.5166
부족	-11.5167
그리	-11.5168
▁으라고	-11.5168
▁취직	-11.5171
▁노사	-11.5171
▁목격	-11.5173
▁체계적	-11.5178
▁국정	-11.518
▁환영	-11.518
▁문체	-11.5185
▁넉넉	-11.519
▁았으면	-11.519
▁조원	-11.5192
단장	-11.5194
▁선우	-11.5197
▁비싸	-11.5199
▁공존	-11.52
▁태아	-11.5203
▁잠자리	-11.5203
▁라든가	-11.5203
▁어온	-11.5205
겐	-11.5206
큼	-11.5209
▁매입	-11.5214
▁시멘트	-11.5219
▁방금	-11.522
져오	-11.5226
조약	-11.5226
un	-11.5229
▁재수	-11.5234
▁부풀	-11.5234
tic	-11.5238
▁설명해	-11.5242
▁섹스	-11.5248
▁결의	-11.5261
▁신속	-11.5263
▁즉각	-11.5265
▁실려	-11.5267
▁당뇨병	-11.5271
▁원숭이	-11.5272
▁브랜드	-11.5272
▁예의	-11.5289
안정	-11.5296
▁한국어	-11.5296
▁수치	-11.5299
퀴	-11.5322
▁잠자	-11.5323
▁다면서	-11.5324
▁정조	-11.5325
▁어딘가	-11.5327
▁위축	-11.5329
▁비틀	-11.5334
▁장윤	-11.5341
▁응용	-11.5341
▁이름이	-11.5342
연금	-11.5342
▁투기	-11.5343
▁구조적	-11.5352
▁저널리즘	-11.5354
▁희미	-11.5355
▁었던가	-11.5356
화장품	-11.5358
▁김동	-11.5359
▁느냐에	-11.5365
종합	-11.537
빼	-11.5373
▁학급	-11.5375
▁코스닥	-11.5382
▁양국	-11.5387
▁고르	-11.5389
▁마늘	-11.5392
▁복수	-11.5393
요금	-11.5394
lo	-11.5404
▁단속	-11.5404
뽀	-11.541
총회	-11.5414
▁해안	-11.5414
▁아홉	-11.5416
저축	-11.5416
▁조선시대	-11.5418
▁민족문학	-11.5421
▁흰색	-11.5423
▁자기들	-11.5425
▁승인	-11.5431
멘	-11.5435
폈	-11.5437
▁이리저리	-11.5438
▁빈곤	-11.544
▁십니까	-11.5445
▁결성	-11.5448
▁허무	-11.545
▁음은	-11.5453
수표	-11.5454
▁사설	-11.5458
▁등산	-11.5463
낀	-11.5465
붐	-11.5465
공산당	-11.5465
▁날카로	-11.5468
▁교훈	-11.5472
▁난자	-11.5475
▁주역	-11.548
▁전용	-11.5486
델	-11.5488
▁어놓고	-11.5493
▁상황이	-11.5495
▁위상	-11.5495
▁해군	-11.5496
구도	-11.5497
▁불평등	-11.5502
듬	-11.5504
▁두루	-11.5507
▁흑인	-11.5509
▁길가	-11.551
▁서라도	-11.5513
▁금속	-11.5519
웨이	-11.5521
▁못지않	-11.5524
▁체질	-11.5529
▁달랐	-11.5532
메이	-11.5533
▁일상적	-11.5536
▁너희	-11.5536
불리	-11.5539
요소	-11.5541
▁고작	-11.5544
도끼	-11.5545
▁정립	-11.5545
z	-11.5553
숨	-11.5564
▁재능	-11.5564
▁지나갔	-11.5567
야구	-11.5571
트라	-11.5575
▁덧붙	-11.5578
렉	-11.5578
▁사연	-11.5583
▁나요	-11.5588
▁초조	-11.5593
▁협동	-11.5595
▁무사	-11.5603
▁보충	-11.5608
리스트	-11.5611
▁논술	-11.5613
교과	-11.5615
▁였을	-11.5617
▁변신	-11.562
랬	-11.5629
▁추석	-11.5631
▁추천	-11.5632
▁편입	-11.5634
뇨	-11.5635
박사	-11.5638
뭉치	-11.5647
▁사회과학	-11.5649
▁매출	-11.565
▁정복	-11.5651
▁확고	-11.5653
▁구현	-11.5653
민주주의	-11.5654
▁생선	-11.5658
▁안주	-11.566
▁암컷	-11.5663
▁간판	-11.5666
▁천연	-11.5669
▁대중문화	-11.567
▁허구	-11.5674
▁정상적	-11.5676
스카	-11.5678
경찰	-11.5678
▁달라고	-11.5679
▁감기	-11.5681
▁직선	-11.5691
윈	-11.5692
맣	-11.5692
팥	-11.5692
▁막대	-11.5693
▁신도	-11.5695
평균	-11.5697
▁오줌	-11.5698
물이	-11.5698
문화재	-11.5699
▁소파	-11.5704
▁잇따	-11.5707
▁환경운동	-11.5709
▁리라는	-11.5713
▁발견된	-11.5713
병들	-11.572
▁법정	-11.572
▁는지는	-11.5722
효율	-11.5725
▁터키	-11.5731
▁애요	-11.5738
사위	-11.5739
▁전적	-11.5743
큐	-11.5749
대금	-11.575
▁원료	-11.5755
▁구절	-11.5757
▁연말	-11.5758
▁애국	-11.576
▁타협	-11.5761
공작	-11.5761
▁진학	-11.5771
▁흡사	-11.5783
물리학	-11.5785
명사	-11.5786
강사	-11.579
들끼리	-11.579
▁경남	-11.5803
▁백만원	-11.5805
▁km	-11.5807
▁훔쳐	-11.5808
▁우리집	-11.5808
▁마이크	-11.5808
니아	-11.5809
▁백성들	-11.5814
▁부과	-11.5817
▁상주	-11.5818
▁고전	-11.5819
획	-11.5821
▁체육	-11.5832
ne	-11.5835
비아	-11.5839
▁포항	-11.5839
▁증세	-11.5839
탄압	-11.5841
▁황제	-11.5842
▁장기적	-11.5844
세탁	-11.5845
▁선출	-11.5849
출신	-11.5853
▁떠돌	-11.5858
▁전형적	-11.5859
▁열려	-11.5859
▁내포	-11.5861
▁통로	-11.5866
원칙	-11.5868
▁돌아서	-11.587
▁동지	-11.5874
▁끌어들	-11.5875
▁열쇠	-11.5876
작품	-11.5879
미사	-11.5879
뜩	-11.5893
▁조선일보	-11.5895
▁관람	-11.5898
민당	-11.59
뢰	-11.5904
▁수컷	-11.5904
▁오랜만	-11.5907
▁지역사회	-11.5919
▁이집트	-11.5924
▁빛깔	-11.5925
두부	-11.5927
틀리	-11.5927
▁역학	-11.5928
to	-11.5931
▁생각나	-11.5934
정전	-11.5936
연맹	-11.5937
▁세련	-11.5939
▁차리	-11.594
▁기뻐	-11.5941
밀리	-11.5943
음료	-11.5944
교통	-11.5949
▁시달	-11.5949
벌리	-11.595
깨우	-11.5952
갯	-11.5952
▁동아시아	-11.5953
▁워싱턴	-11.5953
▁한테서	-11.5954
▁이윽	-11.5959
▁제주도	-11.5962
▁어하는	-11.5964
산화	-11.5965
▁허공	-11.5966
컴퓨터	-11.5968
▁주소	-11.5971
▁감자	-11.5973
▁뜻밖	-11.598
▁괴로	-11.5993
▁말투	-11.5997
▁선고	-11.5997
▁전반적	-11.6004
▁한결	-11.6004
▁타락	-11.6004
▁시중	-11.6007
▁저작	-11.601
▁예감	-11.6011
▁튀어나	-11.6012
▁사명	-11.6012
▁마르크스	-11.6012
▁각오	-11.6013
▁세종	-11.6018
▁일련	-11.602
▁점잖	-11.602
▁신애	-11.6021
▁마음대로	-11.6021
마이	-11.6025
주체	-11.6029
▁지나간	-11.6029
▁다든지	-11.6031
▁신규	-11.6036
▁복사	-11.6037
▁교체	-11.6039
▁마약	-11.604
보험료	-11.6046
▁개구리	-11.6047
벌인	-11.6047
공급	-11.6051
깊	-11.6051
▁안심	-11.6059
▁사십	-11.6065
▁울려	-11.6066
부품	-11.6067
li	-11.6067
▁개막	-11.6068
▁정문	-11.607
뻘	-11.6071
▁정직	-11.6071
▁추적	-11.6072
벼락	-11.6076
▁무의식	-11.6076
▁낭비	-11.6076
▁원소	-11.6081
▁국방부	-11.6082
자루	-11.6084
세요	-11.6093
▁간신	-11.6094
▁기후	-11.6098
▁잠재	-11.6099
▁서민	-11.6099
▁재빨리	-11.6101
▁끔찍	-11.6101
▁추위	-11.6101
▁일시적	-11.6101
반도체	-11.6102
▁설득력	-11.6104
▁내려와	-11.6109
겠지만	-11.6109
▁생계	-11.6113
▁저서	-11.6119
▁결단	-11.6129
지낸	-11.6132
▁울산	-11.6135
▁유사한	-11.6137
▁모은	-11.614
▁만돌이	-11.6142
▁시정	-11.6145
▁모범	-11.6154
순위	-11.6158
썰	-11.616
▁뿐이었다	-11.6165
전환	-11.6166
▁단편	-11.6175
id	-11.6177
▁상기	-11.6181
배기	-11.6184
▁악마	-11.6186
▁핑계	-11.6192
▁국무	-11.6194
의약품	-11.6196
▁대동	-11.6199
▁여러가지	-11.6199
▁마셨	-11.6199
▁갖가지	-11.6201
▁귀여	-11.6205
▁단절	-11.6224
▁굴러	-11.6229
▁사안	-11.6232
▁최후	-11.6233
깐	-11.6235
펠	-11.6251
▁대한민국	-11.6251
▁구사	-11.6262
▁아우	-11.6264
▁선두	-11.6266
랭	-11.6267
▁시조	-11.627
▁아가	-11.627
▁충고	-11.6275
▁모이	-11.628
▁았는지	-11.6282
▁신설	-11.6283
▁출범	-11.6286
▁유리창	-11.6289
▁유대	-11.6292
쇄	-11.6293
▁달아나	-11.6293
▁입원	-11.6294
▁이뤄	-11.6298
▁방송사	-11.6299
▁소설가	-11.6308
▁튼튼	-11.6312
▁은근히	-11.6313
▁어울려	-11.6314
▁맨날	-11.6318
▁편견	-11.632
지않	-11.6321
▁중요시	-11.6323
정화	-11.6325
▁꼼짝	-11.6325
▁데모	-11.6327
▁움이	-11.633
▁범인	-11.633
▁한테는	-11.6332
▁승주	-11.6332
▁오가	-11.6332
▁절약	-11.6338
▁주체적	-11.634
▁달걀	-11.6342
▁매춘	-11.6348
▁심심	-11.6351
지출	-11.6355
ment	-11.6355
▁겠소	-11.6359
▁감성	-11.6361
벙	-11.6372
▁서른	-11.6374
▁두려워	-11.6374
▁순진	-11.6375
스리	-11.6376
▁회전	-11.6378
▁퇴근	-11.6379
▁동학	-11.6383
▁생리	-11.6383
▁지능	-11.6388
순경	-11.6388
▁시급	-11.6389
▁강물	-11.6392
▁날리	-11.6397
▁축하	-11.64
▁국회의원	-11.6404
▁고만	-11.6407
▁풍자	-11.6421
▁단단	-11.6426
칫	-11.6426
▁철학자	-11.6429
▁당해	-11.643
종목	-11.6434
꼭대기	-11.6434
▁대표적	-11.6434
▁유기	-11.6438
▁취한	-11.6441
▁벗겨	-11.6441
▁리라고	-11.6451
▁인사들	-11.6456
▁가꾸	-11.6458
관절	-11.6459
▁동료들	-11.6461
렴	-11.6464
얇	-11.6465
칩	-11.6465
▁마찬가지다	-11.6468
▁필수	-11.6471
▁거북	-11.6472
▁이윤	-11.6472
꼬박	-11.6474
산성	-11.6479
▁아득	-11.6482
경기장	-11.6484
▁지불	-11.6486
▁인체	-11.649
▁탁자	-11.6492
▁내버려	-11.6496
매수	-11.6496
▁올라오	-11.6497
▁야겠다	-11.6502
▁제자	-11.6506
즈음	-11.6507
▁구제	-11.6509
▁언론사	-11.651
▁현대인	-11.6514
▁불꽃	-11.6516
원짜리	-11.6518
아먹	-11.6524
▁엘리베이터	-11.6527
▁변혁	-11.6529
▁활기	-11.6529
▁어쩐지	-11.6535
▁문제이	-11.6535
▁밥상	-11.6536
▁차관	-11.654
▁전락	-11.6541
▁손상	-11.6546
▁모았	-11.6547
▁대지	-11.6549
▁대다수	-11.6559
심리학	-11.656
▁고찰	-11.6561
um	-11.6561
만은	-11.6562
▁가로막	-11.6563
뿌리	-11.6566
음식점	-11.6566
▁모험	-11.6566
▁현저	-11.6571
수염	-11.6572
면접	-11.6573
색이	-11.658
▁신성	-11.6584
끼치	-11.6587
눕	-11.6589
NA	-11.6589
개선	-11.6589
▁챙겨	-11.659
▁불쾌	-11.6593
넣	-11.6599
뻐	-11.6599
▁수천	-11.6601
▁정치권	-11.6603
▁무관심	-11.6604
형이	-11.6607
▁거미	-11.6608
세트	-11.6617
mo	-11.6618
제비	-11.6618
회관	-11.6619
▁총체적	-11.6623
▁잡아	-11.6623
▁갑작스	-11.6624
▁총선	-11.6624
▁강남	-11.6625
판사	-11.6626
▁지경	-11.6634
매장	-11.6637
▁위험한	-11.6641
▁천명	-11.6643
아웃	-11.6649
아갔	-11.6651
딩	-11.6652
▁빨래	-11.6654
▁동행	-11.6654
▁그리움	-11.6656
▁염두	-11.6661
▁감염	-11.6665
▁강경	-11.6675
프로그램	-11.6679
▁실린	-11.6679
▁합병	-11.668
반해	-11.6682
잣	-11.6684
▁피아노	-11.6684
러미	-11.6687
▁시어머니	-11.669
▁주최	-11.6691
▁추상	-11.6692
▁입맛	-11.6695
▁비행	-11.6698
숫	-11.6701
▁부수	-11.6702
▁비례	-11.6706
▁행해	-11.6715
딘	-11.6715
툭	-11.6715
▁어린아이	-11.6717
▁장미	-11.6718
깔려	-11.6728
설비	-11.6728
▁찬성	-11.6739
▁벌여	-11.674
수건	-11.6752
▁추상적	-11.6753
▁권위주의	-11.6754
▁스쳐	-11.6757
▁편리	-11.676
▁시가	-11.676
미암	-11.6761
▁줄여	-11.6763
끄러	-11.6764
▁머무	-11.6765
▁풍부한	-11.6775
▁허위	-11.6777
팠	-11.6779
▁대조	-11.6781
▁공해	-11.6784
▁해설	-11.6784
▁소망	-11.6786
▁광경	-11.6789
▁책들	-11.68
▁월말	-11.6801
▁석기	-11.6805
▁에게만	-11.6806
묘지	-11.6806
더군	-11.6807
▁큰일	-11.6809
확산되	-11.6811
▁저마다	-11.6811
▁낱말	-11.6811
▁외모	-11.6813
▁소극적	-11.6814
▁주시	-11.6827
▁소용	-11.6828
▁머리카락	-11.6843
▁폴란드	-11.6843
▁손목	-11.6848
▁향후	-11.685
▁겠니	-11.6855
▁흘러내	-11.6855
▁물질적	-11.6859
제야	-11.6862
▁금세	-11.6864
뱃	-11.6873
▁혼인	-11.6873
▁모형	-11.6885
▁자연스러	-11.6889
▁친정	-11.6892
▁성공적	-11.6896
▁바로잡	-11.6897
고개	-11.6897
더미	-11.6901
▁에게로	-11.6901
▁임대	-11.6903
▁지워	-11.6904
그머니	-11.6907
쿨	-11.6907
뚜껑	-11.6907
▁롯데	-11.6907
▁열기	-11.6912
▁였습니다	-11.6918
▁주거	-11.6921
ti	-11.6924
▁내릴	-11.6927
꾼들	-11.6927
▁물려	-11.6929
▁일러	-11.6929
▁집단적	-11.6932
▁병역	-11.6936
어오	-11.6937
▁부추	-11.6939
▁XX	-11.6939
깍	-11.694
▁부각	-11.694
호박	-11.6941
▁해답	-11.6948
▁주류	-11.6949
보전	-11.6952
▁만도	-11.6953
져왔	-11.6953
▁게까지	-11.6953
▁어떡	-11.6955
▁부분적	-11.6957
▁들러	-11.6959
아파트	-11.6962
▁결과적	-11.6966
▁종전	-11.6968
둘레	-11.6971
▁피워	-11.6972
룸	-11.6972
▁금순네	-11.6972
▁MBC	-11.6973
▁얘길	-11.6975
비누	-11.6978
청사	-11.6978
▁한결같	-11.6989
화상	-11.699
주권	-11.6991
▁접시	-11.6993
▁노리	-11.6993
▁틀림없이	-11.6995
▁철거	-11.6997
▁지분	-11.6999
▁다가도	-11.7
▁생명체	-11.7004
▁프로젝트	-11.7005
▁타당	-11.7009
▁회원들	-11.701
멀	-11.7013
▁면서부터	-11.7015
▁두드러	-11.7016
새끼들	-11.7018
▁모인	-11.7019
▁김현	-11.7026
▁감격	-11.7027
▁재우	-11.7029
▁승진	-11.7029
섹	-11.7033
▁취지	-11.7034
▁대항	-11.7036
▁민족해방운동	-11.7037
▁훼손	-11.7037
산맥	-11.7039
▁잡아먹	-11.7041
모델	-11.7041
▁별명	-11.7044
항쟁	-11.705
농가	-11.7055
▁자궁	-11.706
▁버리고	-11.7062
▁조지	-11.7069
엑스	-11.707
▁주년	-11.7073
▁북경	-11.7074
▁주방	-11.7076
▁남성들	-11.7079
▁재현	-11.708
▁오래된	-11.7081
▁결승	-11.7081
▁고서는	-11.7088
▁변한	-11.7095
대법원	-11.7097
▁아랍	-11.7102
▁세진	-11.7108
▁소멸	-11.711
스티	-11.7111
건물	-11.7115
▁노란	-11.7115
▁활약	-11.7115
▁복원	-11.712
▁골프	-11.7124
▁상표	-11.7125
▁소원	-11.7129
▁이따금	-11.7136
▁여신	-11.7137
▁어둡	-11.7138
목표	-11.714
▁유가	-11.7143
▁혈관	-11.7144
▁증오	-11.7147
▁을까요	-11.7149
▁스무	-11.7149
▁상무	-11.7152
▁간절	-11.7156
▁관측	-11.7158
▁매개	-11.7161
▁취소	-11.7164
▁지면서	-11.7168
용품	-11.7168
▁내는	-11.7169
▁캄보디아	-11.7169
땡	-11.7169
▁활짝	-11.717
▁획기적	-11.717
▁풍속	-11.7182
▁간질	-11.7185
▁불평	-11.7186
▁계집	-11.719
▁체포	-11.7191
▁건국	-11.7196
▁외출	-11.7204
▁농경	-11.7205
▁설탕	-11.7206
▁으레	-11.7207
▁지루	-11.7208
▁모처럼	-11.7212
▁예고	-11.7215
▁석탄	-11.7215
봄	-11.7225
▁유감	-11.7225
▁요소들	-11.7228
렇	-11.7231
▁철학적	-11.7232
낯	-11.7232
옴	-11.7236
▁가르시아	-11.7236
▁브라질	-11.7237
▁전화번호	-11.7237
▁명의	-11.7239
물량	-11.7241
치기	-11.7245
▁자연히	-11.7249
▁찾아와	-11.7249
▁저술	-11.7249
일보	-11.7251
분할	-11.7253
▁박씨	-11.7254
▁편성	-11.7258
▁섬세	-11.7259
▁발견했	-11.7263
ut	-11.7266
▁겨냥	-11.727
▁특허	-11.727
▁시야	-11.7271
▁리듬	-11.7273
od	-11.7274
▁비웃	-11.7274
▁생산성	-11.7276
▁기엔	-11.7278
자위	-11.7281
▁인원	-11.7283
▁방사	-11.7286
리그	-11.7289
레스	-11.7292
브로	-11.7296
▁사후	-11.7296
▁작품이	-11.7296
▁신명	-11.73
▁장자	-11.7301
댓	-11.7303
▁제임스	-11.7303
▁지방자치	-11.7303
▁벼슬	-11.7303
▁내려갔	-11.7311
me	-11.7311
뜨리	-11.7314
비서	-11.7321
▁형성된	-11.7321
글이	-11.7335
▁오토바이	-11.7336
▁스페인	-11.7336
▁스튜	-11.7337
▁국한	-11.7338
▁가르침	-11.7339
▁똑바	-11.734
▁신음	-11.7345
▁일원	-11.7347
im	-11.7348
현황	-11.735
▁서명	-11.7353
화시키	-11.7353
▁결혼식	-11.7358
▁체력	-11.7358
꿈	-11.7361
▁신인	-11.7371
▁조사한	-11.7372
▁전북	-11.7373
▁보는	-11.7375
▁척하	-11.7378
▁유입	-11.7379
▁약점	-11.7379
▁혼합	-11.738
▁리더	-11.7382
▁다는데	-11.7385
▁겠네	-11.7385
▁발라	-11.7386
격차	-11.7386
매매	-11.7386
투수	-11.7388
▁재생	-11.739
사채	-11.7391
요원	-11.7396
▁곡식	-11.7396
▁전주	-11.7397
▁완벽한	-11.7397
두리	-11.7401
지표	-11.7406
노라	-11.7408
▁규명	-11.7415
▁공식적	-11.7415
▁생전	-11.7418
아졌	-11.743
▁출전	-11.7431
▁풍기	-11.7434
브라	-11.7435
▁관광객	-11.7438
▁눈동자	-11.7439
EC	-11.744
▁옹호	-11.7441
▁자문	-11.7442
▁손톱	-11.7442
▁성리학	-11.7443
▁발걸음	-11.7446
▁웬일	-11.7449
▁양보	-11.7452
▁번갈	-11.7452
▁질적	-11.7453
팀장	-11.7457
▁반쯤	-11.7464
챙	-11.7489
▁속삭	-11.749
▁주저	-11.749
▁금년	-11.7491
▁감탄	-11.7493
▁설화	-11.7498
▁작동	-11.75
팩	-11.7504
▁과천시	-11.7504
분자	-11.7507
▁왕자	-11.7508
▁화살	-11.7508
▁었죠	-11.7508
▁무어	-11.7509
▁징역	-11.751
▁돋보	-11.7513
상금	-11.7514
▁웬만	-11.7516
중대한	-11.752
ha	-11.7521
▁덕호	-11.7526
▁풍부	-11.753
▁일쑤	-11.753
▁저승	-11.7537
▁종속	-11.754
찼	-11.7541
▁눈썹	-11.7541
▁오페라	-11.7541
▁떨어질	-11.7543
▁압박	-11.7545
▁으론	-11.7546
▁희곡	-11.7547
▁움직여	-11.7548
▁가져온	-11.7552
▁지명	-11.7555
▁동부	-11.756
▁맛보	-11.7561
▁날아가	-11.7568
▁저편	-11.7569
바구니	-11.7575
▁이승만	-11.7576
▁춘향	-11.7578
▁집중적	-11.7579
▁어린애	-11.7581
▁내려왔	-11.7587
▁실은	-11.7588
흔한	-11.7591
▁파고	-11.7596
▁라기보다는	-11.7602
▁거요	-11.7604
▁기생	-11.7605
▁낯설	-11.7611
▁허물	-11.7612
▁말리	-11.7612
등급	-11.7615
▁한가지	-11.7616
ir	-11.7618
브리	-11.7621
강아지	-11.7621
스코	-11.7626
청년	-11.7631
작물	-11.7633
▁심상	-11.7639
▁간장	-11.7642
▁역설	-11.7643
▁분간	-11.7644
▁콤플렉스	-11.7645
▁쓸데없	-11.7645
▁병아리	-11.7646
ph	-11.7648
▁둥근	-11.765
▁노려	-11.7651
▁단단히	-11.7652
con	-11.7657
▁끝날	-11.7659
▁한눈	-11.7663
▁통보	-11.7667
▁나라들	-11.7671
▁꾸미	-11.7675
▁예술적	-11.7683
▁아낙	-11.7683
▁농협	-11.7689
▁기피	-11.7689
▁청주	-11.769
▁산골	-11.7697
▁필재	-11.7701
▁학력	-11.7707
▁언론인	-11.7708
▁입력	-11.771
▁끼여	-11.7712
▁후손	-11.7713
▁울타리	-11.7714
▁근원적	-11.7715
▁음으로써	-11.7715
▁멍하	-11.7716
▁몰락	-11.772
▁미만	-11.7721
▁퇴직	-11.7723
▁이빨	-11.7729
▁부끄	-11.773
▁더욱더	-11.7731
▁분량	-11.7734
▁유의	-11.7737
▁자제	-11.7741
▁반찬	-11.7742
란히	-11.7746
▁보름	-11.7749
농민	-11.7753
▁연초	-11.7754
▁행정부	-11.7759
▁경과	-11.7759
석이	-11.7765
▁산문	-11.7774
▁발명	-11.7775
▁입주	-11.7775
▁일반화	-11.7778
티브	-11.778
엘리트	-11.7785
륵	-11.7785
▁권유	-11.7787
▁마냥	-11.7787
▁풀려	-11.7791
▁정열	-11.7794
▁정당성	-11.7795
반죽	-11.7798
▁였다고	-11.7798
공모	-11.7805
늘리	-11.7805
췄	-11.782
고객	-11.7823
목록	-11.7826
요법	-11.7826
▁조세	-11.7827
▁신임	-11.7828
▁수도권	-11.7829
자형	-11.7829
▁둔화	-11.783
▁장차	-11.7832
▁계통	-11.7832
서적	-11.7833
▁내려온	-11.7836
원조	-11.7839
할머니	-11.7839
▁은밀	-11.784
▁중대	-11.7845
주자	-11.7854
▁만져	-11.7855
쟝	-11.7855
▁상반기	-11.7856
▁아져	-11.7856
▁깨뜨	-11.7857
결제	-11.7859
▁가져가	-11.786
▁과학자들	-11.786
▁차마	-11.7861
▁긍정	-11.7864
닌	-11.7865
▁회색	-11.7869
챙기	-11.7872
묻	-11.7875
강변	-11.7877
▁자기네	-11.7877
낮	-11.788
▁두레	-11.7882
규정	-11.7886
▁선행	-11.789
▁국세청	-11.7891
▁의약분업	-11.7891
▁움켜	-11.7894
▁싸워	-11.7901
▁재무	-11.7902
▁취임	-11.7904
일치하	-11.7904
NP	-11.7915
▁게끔	-11.792
▁결여	-11.7924
앗	-11.7925
계좌	-11.7925
▁성당	-11.7926
▁전월	-11.7928
▁간격	-11.7932
▁정당화	-11.7933
금고	-11.7937
이야기	-11.7938
▁착수	-11.7939
▁흑자	-11.7944
▁퍼지	-11.7949
▁장만	-11.7953
▁가지고	-11.7953
▁병력	-11.7957
똘	-11.7963
틸	-11.7963
▁섭섭	-11.7963
▁불러일으	-11.7966
팬들	-11.7968
▁시청자	-11.797
▁대학생들	-11.7974
행랑	-11.7975
▁대략	-11.7978
▁안양	-11.7978
▁분산	-11.7979
▁과잉	-11.7984
▁았나	-11.7986
공유	-11.7986
증진	-11.7988
▁계신	-11.799
솜	-11.7995
랩	-11.7999
▁왕형사	-11.7999
▁확률	-11.8
의례	-11.8001
슬쩍	-11.8001
어맞	-11.8005
▁읍내	-11.8005
▁발목	-11.8006
객들	-11.8008
▁판정	-11.8011
아듣	-11.8015
▁저희들	-11.8015
▁뿐이다	-11.8016
▁경화	-11.8017
▁중추	-11.8025
▁번지	-11.8026
틀린	-11.8028
▁호주	-11.8032
ma	-11.8044
좁	-11.8044
▁담장	-11.8048
▁생애	-11.8053
▁몸짓	-11.8055
▁현실적인	-11.8058
▁김종	-11.806
아트	-11.8061
▁당부	-11.8063
▁각성	-11.8064
▁정씨	-11.8065
정희	-11.8066
▁위안	-11.807
빅	-11.8071
▁뱃속	-11.8072
▁팽창	-11.8072
▁밀가루	-11.8073
▁침범	-11.8077
▁어쩌다	-11.8077
▁얘기다	-11.8078
▁방법론	-11.8079
다툼	-11.808
필름	-11.808
▁채용	-11.8084
는커녕	-11.8086
▁몰두	-11.8086
▁병변	-11.8087
▁예언	-11.8098
고속도로	-11.8098
▁경찰관	-11.8099
기관들	-11.8103
▁애매	-11.8104
▁팔레스타인	-11.8107
▁남짓	-11.8107
▁안토니	-11.8107
▁아쉬움	-11.8108
▁탁월	-11.811
꼭지	-11.8111
▁계몽	-11.8112
대표팀	-11.8118
▁무얼	-11.812
▁격려	-11.8129
▁해변	-11.8135
▁연인	-11.8137
▁았다면	-11.8138
▁민주적	-11.8141
점포	-11.8142
잤	-11.8144
he	-11.8144
▁규혁	-11.8144
▁앞뒤	-11.8152
▁타당성	-11.8156
코트	-11.8158
▁문제다	-11.8158
포구	-11.8159
▁까다	-11.8159
▁접속	-11.816
▁비참	-11.816
▁유치원	-11.8161
▁선뜻	-11.8163
▁음반	-11.8166
▁인간적	-11.8166
▁작곡	-11.8168
조항	-11.8172
틈	-11.8174
▁시나리오	-11.818
탤런트	-11.818
▁늙은이	-11.818
▁그제서야	-11.818
▁동해	-11.8185
▁마셔	-11.8187
▁아님	-11.8187
▁용도	-11.8189
▁였다는	-11.8191
▁관세	-11.8192
▁노마	-11.8196
▁방영	-11.8196
▁다니까	-11.8199
▁급증	-11.82
▁떨어뜨	-11.8201
정세	-11.8202
▁재생산	-11.8205
▁종말	-11.8208
▁여당	-11.8208
국교	-11.8209
▁민이	-11.8216
증후군	-11.8217
▁스위스	-11.8217
▁무의미	-11.8217
▁외로움	-11.8217
에스	-11.822
껄	-11.8222
▁탓이	-11.8223
▁부모들	-11.8224
▁불려	-11.8227
▁전경	-11.8229
▁진상	-11.8231
흡	-11.8234
어오르	-11.8235
▁았지	-11.8238
▁막내	-11.8239
▁동요	-11.824
▁상징적	-11.8243
어설	-11.8244
십년	-11.8247
▁산업화	-11.8247
▁외환	-11.8248
댈	-11.8254
▁연못	-11.8259
▁쓰여	-11.826
▁상당수	-11.8261
▁간호	-11.8261
▁시민운동	-11.8264
▁우정	-11.8266
▁들고	-11.827
▁중소	-11.8271
▁버리는	-11.8271
최	-11.8273
▁육신	-11.8279
▁모금	-11.8285
▁여태	-11.8287
▁타고	-11.829
삿	-11.8291
▁먹여	-11.8306
▁홍수	-11.8307
▁자질	-11.8313
▁여느	-11.8317
▁신나	-11.8327
▁때려	-11.8328
▁모더니즘	-11.8328
▁어머님	-11.8328
▁알아차	-11.833
▁씨앗	-11.833
▁다보니	-11.8333
집합	-11.8336
▁분비	-11.8338
조개	-11.834
▁민요	-11.834
토기	-11.8343
▁능실	-11.8348
▁무성	-11.8352
▁직면	-11.8352
▁다음달	-11.8353
었던	-11.8354
ad	-11.8355
▁당신들	-11.8356
▁중점	-11.8361
용량	-11.8361
▁만기	-11.8367
▁정치권력	-11.8368
과업	-11.8368
▁쟁점	-11.8369
▁교수들	-11.8372
▁자연과학	-11.8372
▁막혀	-11.8374
▁사소	-11.838
▁만물	-11.8383
▁임기	-11.8386
▁시청자들	-11.8394
▁제주	-11.8399
▁현명	-11.84
퉁	-11.8401
▁손자	-11.8402
으므로	-11.8403
▁하룻밤	-11.8403
▁억달러	-11.8403
▁캐나다	-11.8403
▁몸뚱이	-11.8403
▁삼성전자	-11.8403
▁묵묵	-11.8404
▁공적	-11.8405
▁굶주	-11.8408
경제학	-11.8411
▁첨가	-11.8416
▁후보자	-11.8417
▁글쓰기	-11.8417
동향	-11.8423
▁동상	-11.8424
▁소요	-11.8425
▁사막	-11.8426
▁경로	-11.8433
▁어본	-11.8433
처마	-11.8435
독립	-11.844
넨	-11.8441
덥	-11.8441
▁신용카드	-11.8441
▁총리서리	-11.8441
▁금강산	-11.8443
▁문예	-11.8446
바리	-11.8446
▁국내외	-11.8451
겠다는	-11.8465
▁명함	-11.8466
▁실리	-11.8468
펄	-11.8478
무진	-11.8483
교섭	-11.8491
도서	-11.8495
▁메모	-11.8496
연예인	-11.8496
▁최저	-11.8498
▁상류	-11.8499
▁마저도	-11.8503
▁단호	-11.8505
▁연탄	-11.8506
▁양측	-11.8506
▁검정	-11.851
뚜	-11.8516
▁매춘여성	-11.8516
느냐	-11.8516
▁판이	-11.8518
▁능동적	-11.8518
을까	-11.8525
▁간접적	-11.8528
포드	-11.8529
저녁	-11.8538
드린	-11.8539
▁가짜	-11.8543
▁걸치	-11.8548
포트	-11.8549
op	-11.8554
팝	-11.8554
횟	-11.8554
▁병수	-11.8558
▁명시	-11.8559
▁전역	-11.856
▁온전	-11.856
▁대학신문	-11.8562
▁회화	-11.8568
▁실존	-11.8571
▁두통	-11.8573
▁장마	-11.8577
▁반전	-11.8577
전도	-11.8582
▁들린	-11.8582
뱅이	-11.8582
▁으신	-11.8584
▁달빛	-11.8584
▁사용된	-11.859
▁천억원	-11.8591
참여	-11.8592
▁이슬람	-11.8592
왕국	-11.8596
▁사슴	-11.8604
▁일환	-11.8605
▁표출	-11.8607
▁나빠	-11.8607
▁붙였	-11.8613
▁운전사	-11.8613
▁화합	-11.8615
▁육체적	-11.862
▁영토	-11.8621
▁사립	-11.8622
▁들판	-11.8624
발레	-11.8627
그루	-11.8627
▁지독	-11.863
▁순전	-11.8631
▁기득권	-11.8631
▁얼룩	-11.8631
▁조카	-11.8634
사당	-11.8635
수명	-11.8635
▁실명제	-11.8635
▁승객	-11.8638
▁몰리	-11.864
▁실증	-11.864
토리	-11.8643
지향적	-11.8644
▁으려면	-11.8647
▁항구	-11.8648
법안	-11.8652
▁져야	-11.8664
▁타격	-11.8665
화랑	-11.8668
▁주부들	-11.8668
▁수반	-11.8668
▁인간관계	-11.8669
▁불필요	-11.8669
▁한바탕	-11.8669
▁사단	-11.867
▁여럿	-11.8671
공직자	-11.8671
행렬	-11.8672
▁지칭	-11.8674
▁포괄	-11.8677
▁인위적	-11.8677
풍습	-11.868
ity	-11.8682
▁셔서	-11.8685
▁국화	-11.8685
▁두환	-11.8686
▁놓았	-11.869
▁줄거리	-11.8694
▁사치	-11.8704
▁기술적	-11.8704
▁건의	-11.8705
거야	-11.8708
훤	-11.8708
▁상호작용	-11.8709
com	-11.871
투성이	-11.8713
▁청춘	-11.8713
▁액수	-11.8713
▁정통	-11.8714
폴리	-11.8723
▁경북	-11.8723
▁문법	-11.8737
▁속담	-11.874
▁지껄	-11.8741
▁물리적	-11.8742
▁분쯤	-11.8743
팍	-11.8747
▁겠으나	-11.8747
▁유래	-11.8749
▁이해해	-11.8751
▁동아	-11.8753
▁대뇌	-11.8753
▁단서	-11.8754
▁감수성	-11.8757
어붙	-11.8758
아오	-11.8767
▁의뢰	-11.8768
대사관	-11.877
▁빌리	-11.877
▁지탱	-11.8773
공약	-11.8776
▁맹자	-11.8778
▁민수	-11.8778
연료	-11.878
아메리카	-11.8785
즙	-11.8785
▁물기	-11.8786
▁이회창	-11.8787
팔자	-11.8788
▁겹쳐	-11.8788
▁평형	-11.8791
▁취향	-11.8792
▁회수	-11.88
▁요령	-11.88
▁나무들	-11.8802
▁체면	-11.8807
▁신다	-11.881
장교	-11.881
▁시신	-11.8812
▁의사들	-11.8812
▁상위	-11.8824
▁매매춘	-11.8825
▁건만	-11.8825
▁배열	-11.8825
▁격렬	-11.8825
▁흉내	-11.8827
동산	-11.8829
▁곤충	-11.8831
▁학문적	-11.8833
▁교정	-11.8834
백색	-11.8835
▁기아	-11.8839
▁죽여	-11.8841
▁방황	-11.8843
▁승려	-11.8855
▁김상	-11.8863
아다니	-11.8866
▁협박	-11.8869
▁용납	-11.8871
▁극단적	-11.8872
▁감지	-11.8873
▁친일	-11.8878
▁세희	-11.8878
▁명문	-11.8883
▁보석	-11.8889
▁확인해	-11.8892
▁문화제	-11.8895
아낸	-11.8897
▁뭐니	-11.89
▁지식인들	-11.89
▁취약	-11.8906
▁노골적	-11.8907
▁의료체계	-11.8907
설레	-11.8908
▁산책	-11.8908
▁다양성	-11.8911
▁벗어난	-11.8913
▁어지러	-11.8914
▁당나라	-11.8915
▁여도	-11.892
▁풍요	-11.8924
▁진동	-11.8924
▁마신	-11.8928
▁출장	-11.8929
▁선조	-11.893
▁대청	-11.8935
서랍	-11.8937
벗	-11.8941
딛	-11.8943
▁커튼	-11.8944
▁납득	-11.8944
▁오만	-11.8946
▁상부	-11.8946
▁밑바닥	-11.8949
▁반공	-11.8952
경험	-11.8953
▁악기	-11.8953
면제	-11.8954
▁연안	-11.8954
▁였지만	-11.8958
가닥	-11.8964
심성	-11.897
스름	-11.8971
▁올라간	-11.8971
▁일자리	-11.8974
▁외래	-11.8976
▁번식	-11.8981
렛	-11.8982
▁노무현	-11.8982
▁자부심	-11.8983
▁가끔씩	-11.8986
므로	-11.8987
분히	-11.8987
▁깨달음	-11.8988
▁에게나	-11.899
만년	-11.8991
구만	-11.8991
MC	-11.8992
▁솟아	-11.8993
▁중순	-11.8996
▁윤리적	-11.8997
▁행운	-11.9003
주임	-11.9005
▁진로	-11.901
뭇	-11.9016
▁큰소리	-11.9018
▁전무	-11.9019
▁어쨌	-11.902
뎌	-11.9022
▁알코올	-11.9022
▁으루	-11.9027
십자	-11.9027
▁을수록	-11.9032
▁돌파	-11.9032
▁이나마	-11.9033
나갔다	-11.9035
▁전문적	-11.905
▁찢어	-11.905
▁어젯밤	-11.9062
▁크리스마스	-11.9062
▁앞장서	-11.9063
▁징계	-11.9068
▁양말	-11.9069
▁기세	-11.9069
▁충청	-11.907
▁회상	-11.9076
다투	-11.9079
▁아지는	-11.9079
▁자니	-11.9082
▁CD	-11.9083
▁수습	-11.9086
▁물건들	-11.9086
▁팔리	-11.9093
▁청소년들	-11.9097
왈	-11.9102
▁정반대	-11.9102
▁마실	-11.9103
▁결정적	-11.9104
▁효율성	-11.9109
▁모호	-11.911
▁수령	-11.9111
▁시대적	-11.9115
▁뭐야	-11.9119
▁방치	-11.9119
▁발간	-11.9119
▁어버렸다	-11.9124
ig	-11.9125
▁가슴속	-11.9134
▁북부	-11.9135
▁더럽	-11.914
▁꼼꼼	-11.9143
▁계집애	-11.9144
▁실재	-11.9144
▁접수	-11.9145
▁운반	-11.9145
기지	-11.9146
▁이야기다	-11.9149
닥치	-11.9156
폭탄	-11.9161
▁응시	-11.9165
▁중동	-11.9167
섯	-11.9167
주의자들	-11.9169
▁생산력	-11.9174
▁안면	-11.9176
밖에는	-11.9179
▁숙소	-11.918
man	-11.9183
봇	-11.9183
▁당분간	-11.9183
▁데뷔	-11.9185
납부	-11.9186
▁차분	-11.9193
공세	-11.9193
좌석	-11.9197
▁서였다	-11.9197
▁였기	-11.92
▁유효	-11.92
▁이해관계	-11.9203
▁대담	-11.9209
▁제고	-11.9211
▁호남	-11.9216
당겨	-11.9217
for	-11.9219
▁유독	-11.922
쿵	-11.9224
▁몸부림	-11.9224
▁태봉이	-11.9224
▁앵커	-11.9224
▁여의도	-11.9225
▁미흡	-11.9227
▁우뚝	-11.9228
▁구슬	-11.923
피아	-11.9232
약국	-11.9232
▁악수	-11.9232
▁우위	-11.9234
▁냉정	-11.9236
궤도	-11.9242
동맥	-11.9244
회사들	-11.9246
감치	-11.9253
▁언제든	-11.9253
▁진주	-11.9258
체험	-11.9261
볕	-11.9265
▁순식간	-11.9265
▁한국은행	-11.9267
▁미끄러	-11.9268
▁았을까	-11.927
▁충남	-11.9271
▁다국적	-11.9272
▁연세대	-11.9272
▁개울	-11.9274
▁허허	-11.9274
▁조종	-11.9288
윽	-11.9296
강좌	-11.9297
▁본사	-11.9297
ver	-11.9299
▁관악산	-11.9306
▁문의	-11.9308
나물	-11.932
▁뒤쪽	-11.932
표지	-11.9322
vi	-11.9322
IS	-11.9333
▁놈이	-11.9333
▁천년	-11.9338
▁동창	-11.9341
찐	-11.9347
모퉁이	-11.9347
▁The	-11.9347
이기주의	-11.9347
▁확충	-11.9349
▁사고방식	-11.9351
극도	-11.9354
▁합성	-11.9354
사탕	-11.9361
▁바치	-11.9367
▁직무	-11.9368
▁식생활	-11.9368
▁개별적	-11.9374
▁의도적	-11.9378
▁일차적	-11.9378
▁일찌	-11.9379
▁천국	-11.938
▁경사	-11.9382
▁벤처산업	-11.9388
▁윌리엄	-11.9388
▁출세	-11.9388
▁깔끔	-11.9388
교도소	-11.9389
▁어지럽	-11.939
▁징후	-11.939
비서관	-11.9393
▁이뤄지	-11.9394
▁소규모	-11.9394
▁한국시리즈	-11.9394
▁슬프	-11.9395
학파	-11.9416
▁겠나	-11.9416
흔하	-11.9421
▁입사	-11.9425
▁단행	-11.9429
▁었더니	-11.9431
▁쇠퇴	-11.9432
▁관계없	-11.9433
조처	-11.9438
▁제자리	-11.944
▁측근	-11.9444
발전소	-11.9446
▁수련	-11.9447
▁우월	-11.9452
▁약해	-11.9455
▁졌고	-11.9456
▁어울	-11.9458
▁주관적	-11.9459
▁교원	-11.9465
로의	-11.9468
▁벤처캐피털	-11.9471
▁찌푸	-11.9472
▁까지를	-11.9475
▁찌르	-11.9479
▁뜯어	-11.948
▁연유	-11.948
다봤	-11.948
▁창립	-11.9481
▁충북	-11.9482
국면	-11.9485
▁역전	-11.9486
▁침입	-11.9487
▁미련	-11.9488
증가율	-11.9488
▁동참	-11.9491
▁이사장	-11.9493
녹	-11.9495
저러	-11.9495
▁두뇌	-11.9496
▁바짝	-11.9497
앵	-11.9513
▁포스트모더니즘	-11.9513
조합원	-11.9516
▁기계적	-11.9518
논하	-11.9524
▁상관없	-11.9524
▁배우자	-11.9548
뛰	-11.955
▁시쯤	-11.9551
▁개봉	-11.9552
▁폭행	-11.9553
앨	-11.9554
▁베란다	-11.9555
▁어우러	-11.9555
▁이듬해	-11.9556
그래	-11.956
▁새댁	-11.956
변수	-11.9573
▁사표	-11.9574
▁술잔	-11.9575
▁영애	-11.9576
▁괴물	-11.9577
▁집필	-11.9577
▁대강	-11.9578
▁손길	-11.9585
▁난리	-11.959
▁중도	-11.9597
쥔	-11.9597
▁건데	-11.9597
▁엎드려	-11.9599
▁슈퍼	-11.9599
▁박정희	-11.96
▁오른손	-11.96
▁잔인	-11.9602
▁배선생	-11.9604
AT	-11.9608
▁낙관	-11.9609
ang	-11.9613
▁부유	-11.9616
▁원활	-11.9617
▁포함해	-11.9618
개월	-11.962
▁육군	-11.9621
베리	-11.9624
▁형상화	-11.9626
▁소란	-11.9627
평야	-11.963
▁부친	-11.9632
▁어주고	-11.9635
▁신학	-11.9638
▁원수	-11.9639
괘	-11.964
기자회견	-11.964
▁SK	-11.9641
ni	-11.9644
상환	-11.9645
▁피난	-11.9647
▁감수	-11.965
폐기물	-11.9653
▁추락	-11.9654
▁아진다	-11.9655
▁수거	-11.9663
▁표기	-11.9666
ta	-11.9669
▁진심	-11.9674
▁매스	-11.9674
j	-11.9682
▁판타지문학	-11.9682
쉰	-11.9682
쓱	-11.9682
▁비타민	-11.9682
▁뒤따라	-11.9682
▁하여튼	-11.9682
사령관	-11.9683
▁포스터	-11.9684
os	-11.9688
▁파장	-11.9688
▁공상	-11.969
no	-11.9691
ate	-11.9692
피스	-11.9693
▁투자자들	-11.9696
▁어왔다	-11.9698
▁동북	-11.9704
▁치명적	-11.9706
▁원효	-11.971
▁연구비	-11.9713
▁냐면	-11.9715
▁분주	-11.9719
▁느닷없	-11.9725
메커니즘	-11.9725
느린	-11.9726
▁더라구요	-11.9729
▁영달	-11.9731
반응	-11.9732
▁지배적	-11.9733
▁생식	-11.9735
▁탄력	-11.9739
▁배신	-11.9739
▁어나가	-11.9741
입장이	-11.9744
딸린	-11.9747
▁음식물	-11.9747
디스	-11.9749
▁제휴	-11.9755
▁군수	-11.9757
코치	-11.9759
터였	-11.9759
▁또래	-11.9759
▁더위	-11.9765
갛	-11.9768
▁발자국	-11.9768
패턴	-11.9771
▁조용한	-11.9773
▁으리라는	-11.9773
과세	-11.9774
ay	-11.9775
▁특권	-11.9775
긋나	-11.9789
▁우두	-11.9793
스케	-11.9795
많	-11.9799
▁기에도	-11.9801
주석	-11.9804
▁수렴	-11.9808
▁불어	-11.9808
▁곡물	-11.981
▁혐오	-11.9811
▁칼럼	-11.9812
▁깨어나	-11.9813
생물학	-11.9817
▁공통점	-11.9818
▁반박	-11.9827
▁순결	-11.9828
ex	-11.9829
▁상승하	-11.9834
▁넘쳐	-11.9839
▁정규	-11.9841
▁생명력	-11.9841
야겠다는	-11.9842
▁정신병	-11.9844
▁국적	-11.9849
껌	-11.9854
뵈	-11.9854
톰	-11.9854
기단	-11.9855
▁테두리	-11.9855
▁글쓰	-11.9855
Co	-11.9859
▁흘려	-11.9862
숭배	-11.9862
▁포착	-11.9865
▁수박	-11.9866
딱지	-11.9867
▁휴전	-11.9871
▁절박	-11.9873
▁정체성	-11.9874
따르	-11.9878
▁쓸모	-11.9882
▁소음	-11.9883
▁셨어	-11.9884
▁반항	-11.9886
▁본다	-11.989
▁비약	-11.9897
▁는가에	-11.9898
꽁	-11.9898
밍	-11.9898
뺏	-11.9898
▁병행	-11.9898
▁깊숙이	-11.99
그래픽	-11.99
▁상덕	-11.9904
▁소형	-11.9919
▁소유자	-11.9924
▁정도다	-11.9932
▁재계	-11.994
▁파트너	-11.9941
뒀	-11.9941
▁옥수수	-11.9941
▁여년	-11.9943
▁당면	-11.9944
▁수화기	-11.9946
복귀	-11.9947
▁어야지	-11.9951
▁냉동	-11.9953
▁모셔	-11.9956
▁뿐입	-11.9957
▁유머	-11.996
법상	-11.9961
라곤	-11.9962
▁광복	-11.9963
그레	-11.9972
▁결함	-11.9973
▁박선생	-11.9974
▁공연히	-11.9981
▁천문학	-11.9982
아르	-11.9983
클리	-11.9983
짠	-11.9985
▁탈북자	-11.9985
쇼핑	-11.9985
▁어김없	-11.9987
터널	-11.9995
▁장난감	-11.9996
▁힘껏	-11.9997
▁열흘	-11.9998
▁치켜	-12.0005
쌓	-12.0011
▁키스	-12.0019
▁단점	-12.0024
sp	-12.0024
▁상장	-12.0024
▁백일	-12.0029
▁나뭇잎	-12.0029
▁매출액	-12.003
▁지리산	-12.0032
▁엄밀	-12.0032
▁데이터	-12.0032
▁빠뜨	-12.0038
▁교묘	-12.0041
▁양파	-12.0042
사범	-12.0047
per	-12.0052
▁교차	-12.0053
더라면	-12.0053
수호	-12.0054
ot	-12.0055
구청	-12.0059
▁아담	-12.0062
▁예민	-12.0062
▁아아	-12.0065
▁척수	-12.0065
pro	-12.0068
▁별개	-12.0068
▁짓이	-12.007
입국	-12.0073
▁전문성	-12.0073
룻	-12.0074
▁불확실	-12.0074
▁쇠고기	-12.0074
▁PD	-12.0076
▁적정	-12.0077
득점	-12.0083
BM	-12.0086
CA	-12.0087
▁었기에	-12.0092
▁오를	-12.0096
▁친근	-12.01
▁동전	-12.0101
반도	-12.0107
녘	-12.0118
▁아랑곳	-12.0118
▁만여	-12.0118
▁포용	-12.012
▁간과	-12.0122
▁전국적	-12.0135
▁식욕	-12.0137
▁대로의	-12.0138
▁최상	-12.0138
대상자	-12.0139
▁자르	-12.0141
장벽	-12.0146
▁안목	-12.0151
바가지	-12.016
▁선가	-12.0161
▁신혼	-12.0162
▁데카르트	-12.0163
▁앙코르	-12.0163
▁만달러	-12.0163
▁극심	-12.0167
▁군부	-12.0168
▁선배들	-12.017
▁합동	-12.0176
▁민족적	-12.018
떨어뜨리	-12.0183
▁화재	-12.0191
▁세수	-12.0194
▁자녀들	-12.0203
▁손질	-12.0207
▁캄캄	-12.0207
바이러스	-12.0207
해수욕장	-12.0207
▁관중	-12.0208
▁진흙	-12.021
▁압축	-12.0212
▁포스트	-12.0214
무르	-12.0217
▁끈질	-12.0219
코너	-12.0221
▁궁금해	-12.0223
mm	-12.0226
▁주면	-12.0232
ie	-12.0235
▁저질	-12.0236
▁월중	-12.0245
년생	-12.0245
뜸	-12.0247
▁세계문학	-12.0247
승호	-12.0249
▁절감	-12.0251
▁플라톤	-12.0253
▁보았다	-12.0253
▁제각기	-12.0253
▁윤곽	-12.0254
▁하반기	-12.0255
▁소모	-12.0264
ec	-12.0266
▁포도주	-12.0266
▁끊임없	-12.0269
▁치매	-12.0271
▁세계사	-12.0272
▁부합	-12.0272
▁젊음	-12.0273
클라	-12.0275
▁체중	-12.0279
▁상속	-12.0289
▁당기	-12.0293
▁이것저것	-12.0298
풋	-12.0298
▁곁들	-12.0298
젖	-12.0298
▁구체화	-12.0298
▁뒤섞	-12.0299
▁파묻	-12.03
▁웅크	-12.0301
뤄	-12.0301
▁명단	-12.0303
ce	-12.0304
▁호응	-12.0306
▁뒤집어	-12.0312
올릴	-12.0318
▁김성	-12.032
▁길거리	-12.0328
▁백인	-12.0339
웰	-12.0343
▁싱싱	-12.0343
▁상점	-12.0345
▁죄송	-12.0346
ge	-12.0348
▁호주머니	-12.0349
백년	-12.0353
hy	-12.0358
참모	-12.0363
▁댔다	-12.0365
▁전세	-12.0365
▁비우	-12.037
▁주체성	-12.0371
▁형식적	-12.0378
▁과외	-12.0378
영희	-12.0384
▁서독	-12.0385
▁비비	-12.0386
찜	-12.0389
뺀	-12.0389
▁찔러	-12.0391
▁광기	-12.0394
▁거냐	-12.0395
▁머리칼	-12.0395
쭈	-12.0395
▁무상	-12.0396
▁요컨	-12.0397
▁졌던	-12.0402
▁어때	-12.0408
▁미묘	-12.0414
▁출간	-12.0414
▁뒤져	-12.0414
▁불안감	-12.0415
리즘	-12.0416
▁양도	-12.0417
▁창피	-12.0417
▁깨지	-12.042
▁불안정	-12.0421
▁외국인들	-12.0427
▁물끄	-12.0429
▁외상	-12.0431
▁발급	-12.0434
눅	-12.0435
믹	-12.0435
▁유연	-12.0435
▁In	-12.0436
▁고아원	-12.0439
▁임의	-12.0442
ap	-12.0448
▁재촉	-12.0449
▁가능해	-12.0457
▁손짓	-12.0468
▁영달이	-12.047
▁표적	-12.048
▁사색	-12.048
▁세로	-12.048
▁형이상학	-12.0481
▁흐느	-12.0481
▁진열	-12.0483
▁통일전선	-12.0484
▁일상생활	-12.0484
▁지구촌	-12.0484
▁빈번	-12.049
▁끌어내	-12.0491
거린	-12.0491
ism	-12.0496
▁나가는	-12.0498
중공업	-12.051
매달리	-12.0514
▁세제	-12.0517
농장	-12.0519
▁되도록	-12.052
자유화	-12.0522
ber	-12.0524
▁상의	-12.0526
핸	-12.0527
▁토마스	-12.0527
▁변호인	-12.0527
▁들어올	-12.0529
▁봐야	-12.0529
▁초등	-12.053
▁황홀	-12.0532
▁군사적	-12.0532
▁생략	-12.0532
▁교전	-12.0533
▁깃발	-12.0534
▁엿보	-12.0535
사이트	-12.0537
▁여인들	-12.0538
▁국산	-12.0548
▁비켜	-12.0551
▁활자	-12.0555
어왔	-12.0567
▁단축	-12.057
ow	-12.057
▁뒷모습	-12.0574
▁뮤지컬	-12.0574
부총리	-12.0574
▁궁궐	-12.0574
▁왔던	-12.0575
▁옆구리	-12.0575
밀도	-12.0577
▁설마	-12.0579
▁영원	-12.0584
▁긴밀	-12.0584
▁까만	-12.0584
▁으셨	-12.0589
▁해결책	-12.0589
▁명절	-12.059
▁니다만	-12.0595
▁매주	-12.0595
스로	-12.0597
▁저것	-12.0598
▁승화	-12.0598
▁맑스	-12.0599
▁야채	-12.0609
▁배아	-12.061
불명	-12.061
쏠	-12.0613
폭포	-12.0618
▁똘스또이	-12.062
▁아르바이트	-12.062
▁패러디	-12.062
▁멀쩡	-12.062
▁한국문학	-12.0628
▁장남	-12.0632
▁바싹	-12.0635
▁김정일	-12.064
▁연꽃	-12.0642
니깐	-12.0644
▁미쳐	-12.0646
▁극적	-12.0649
▁수용자	-12.0655
▁전직	-12.0659
▁중심지	-12.0666
땜	-12.0667
아버님	-12.0667
▁겸손	-12.0669
▁멍청	-12.0669
▁멸망	-12.0671
▁대뜸	-12.0673
▁려구	-12.0677
▁문제삼	-12.0679
▁경직	-12.0681
▁남학생	-12.0681
▁양념	-12.0682
▁오르내	-12.0686
▁손끝	-12.0686
▁귀중	-12.0689
▁대대적	-12.0689
▁노화	-12.0697
▁세번째	-12.0699
▁차이점	-12.0705
▁동물들	-12.071
▁거슬러	-12.0715
▁코미디	-12.0715
▁보편성	-12.0715
▁두들겨	-12.0715
▁낙엽	-12.0716
▁어갔다	-12.0716
▁혼돈	-12.0717
▁kr	-12.0719
▁대거	-12.072
▁경제력	-12.0721
▁사뭇	-12.0722
▁통념	-12.0725
▁태국	-12.0726
▁상고	-12.0727
▁막강	-12.073
▁혼수	-12.0731
▁편리하	-12.0731
▁배우들	-12.0734
크림	-12.0735
▁유익	-12.0745
▁치유	-12.0748
▁궁리	-12.075
▁김재	-12.075
▁함정	-12.0752
▁PC	-12.0753
▁장례	-12.0755
▁한국사회	-12.0758
▁냈다	-12.0758
▁았으니	-12.0762
▁터무니없	-12.0762
▁조그마	-12.0762
▁개개인	-12.0762
▁얌전	-12.0762
▁재야	-12.0764
▁명씩	-12.0766
▁덩치	-12.0767
부신	-12.0769
▁선생들	-12.077
월드	-12.0771
▁태풍	-12.0781
▁모체	-12.0782
▁십상	-12.0785
▁내걸	-12.0786
▁경영진	-12.0788
▁대조적	-12.0794
▁관심사	-12.0799
▁바빠	-12.08
▁상관없이	-12.0803
거려	-12.0803
▁영주	-12.0804
창호	-12.0806
▁선도	-12.0809
▁나뭇가지	-12.0809
깁	-12.0809
멎	-12.0809
▁울음소리	-12.0812
▁호감	-12.0814
▁충성	-12.0815
▁학위	-12.0819
▁무사히	-12.0821
▁사회복지	-12.0823
탱	-12.0824
▁대여	-12.0828
▁공허	-12.0829
▁지도원	-12.083
▁려니	-12.0831
피질	-12.0846
껍	-12.0847
마크	-12.0854
▁진작	-12.0856
슛	-12.0857
▁옥점이	-12.0859
▁텔레	-12.0859
▁뒤덮	-12.0859
▁갈색	-12.0861
토스	-12.0863
▁골목길	-12.0867
놀림	-12.0873
▁창의적	-12.0873
▁엄연	-12.0874
▁초록	-12.0875
tive	-12.0883
▁경작	-12.0885
박스	-12.0887
▁건축물	-12.0896
크레	-12.0898
▁무방	-12.0904
▁쌍둥이	-12.0905
▁광화문	-12.0905
▁불공정	-12.0906
▁좌익	-12.0908
▁무책임	-12.0909
금전	-12.091
▁영업사원	-12.0912
▁근로	-12.0912
▁우면	-12.0914
▁올라왔	-12.0915
유동	-12.0916
▁선임	-12.0921
▁비극적	-12.0921
sh	-12.0932
▁아쉽	-12.0933
▁출석	-12.0935
▁여개	-12.0938
▁동방	-12.094
▁연신	-12.0942
▁복종	-12.0944
▁회고	-12.0949
▁수송	-12.0952
▁못마땅	-12.0954
▁콘크리트	-12.0954
폼	-12.0954
▁맞은편	-12.0954
▁핵무기	-12.0954
▁팽팽	-12.0954
▁극대화	-12.0954
▁합리화	-12.0954
▁읍니다	-12.0954
▁관철	-12.0956
▁걔네	-12.0957
▁음에	-12.0959
pe	-12.096
▁절벽	-12.0961
분담	-12.0962
▁구태	-12.0963
▁감각적	-12.0963
▁우세	-12.0968
체조	-12.0975
특집	-12.0979
▁철강	-12.0982
▁억지	-12.0982
▁조언	-12.0993
빴	-12.1002
좇	-12.1002
▁국가권력	-12.1002
▁법무부	-12.1002
▁자원봉사	-12.1003
▁후세인	-12.1003
▁아있는	-12.1004
▁둥글	-12.1006
▁았더	-12.1006
▁위력	-12.1007
▁으리라고	-12.101
▁자손	-12.1019
애비	-12.1019
내각	-12.1022
▁영월	-12.1022
흙	-12.1023
아올	-12.1026
▁네모	-12.1026
사원들	-12.1028
▁태연	-12.1033
▁정치가	-12.1039
▁연봉	-12.1042
▁증권사	-12.1045
문제라	-12.1046
▁르네상스	-12.1051
▁플라스틱	-12.1051
아카데미	-12.1051
▁경실련	-12.1051
▁한울님	-12.1051
▁대등	-12.1055
▁파문	-12.1055
▁안녕	-12.1059
경관	-12.1065
▁김병	-12.1065
▁낭만주의	-12.1067
▁최신	-12.1068
▁배정	-12.1071
▁었단	-12.1073
▁예견	-12.1074
▁근대적	-12.1074
▁마술	-12.1089
달이	-12.1089
▁임상적	-12.109
▁아서는	-12.1091
템	-12.11
▁클린턴	-12.11
도깨비	-12.11
▁의사결정	-12.11
▁내보내	-12.1101
▁꽃잎	-12.1106
▁욕설	-12.1108
▁변모	-12.1109
▁표방	-12.111
▁비춰	-12.1113
▁경영자	-12.1116
▁자갈	-12.112
▁뇌물	-12.1124
▁일관성	-12.1124
▁말끔	-12.1127
▁망각	-12.1128
▁두드러지	-12.1132
▁유아	-12.1139
담당자	-12.1139
▁대추	-12.1143
▁강구	-12.1143
쎄	-12.1148
싯	-12.1149
▁맴돌	-12.115
▁혈압	-12.1151
▁지방선거	-12.1152
▁포로	-12.1152
▁습득	-12.1152
▁엄숙	-12.1153
▁질투	-12.1155
▁특색	-12.1163
▁개씩	-12.1164
▁책임지	-12.1164
장갑	-12.1165
▁북측	-12.1166
▁고객들	-12.1173
▁무당	-12.1174
전등	-12.1175
닿	-12.1176
▁논거	-12.1177
▁으니까요	-12.1181
▁반문	-12.1184
▁포괄적	-12.1191
쌈	-12.1199
옇	-12.1199
▁나그네	-12.1199
▁짓밟	-12.1199
▁동대문	-12.1199
▁낯익	-12.1199
▁출국	-12.1205
▁단군	-12.1208
▁액체	-12.1209
연중	-12.1212
▁교직	-12.1212
▁상세	-12.1219
▁전략적	-12.122
성장률	-12.122
▁대도시	-12.1225
낚	-12.1225
▁폭로	-12.1225
그물	-12.1229
▁간부들	-12.123
우회	-12.1232
▁자매	-12.1234
모씨	-12.1236
▁무명	-12.1243
▁서해교전	-12.1249
▁클레오파트라	-12.1249
▁무작정	-12.1249
▁괴로움	-12.1249
▁주민등록	-12.1249
▁흡연	-12.1251
메뉴	-12.1252
▁파헤	-12.1253
타령	-12.1254
▁터득	-12.1256
▁인과	-12.1257
ab	-12.1259
▁동그	-12.126
▁급성	-12.1261
▁관장	-12.1261
ca	-12.1268
▁농지	-12.1269
▁창설	-12.1274
▁동등	-12.1278
▁프레	-12.1281
피리	-12.1288
▁성찰	-12.1291
▁시련	-12.1292
▁어지기	-12.1297
▁어지면	-12.1298
조류	-12.13
▁크메르	-12.13
항아리	-12.13
드레	-12.1303
▁자립	-12.1304
▁침착	-12.1308
▁휘두	-12.1313
▁빼앗기	-12.1314
석탑	-12.1315
내심	-12.1315
중심적	-12.1319
계셨	-12.1321
투어	-12.1326
▁수동적	-12.1329
골프장	-12.1334
▁봉지	-12.1337
▁출생	-12.1338
▁총각	-12.1349
▁모스크바	-12.1349
▁찹쌀	-12.1349
▁워졌다	-12.1349
▁외화	-12.135
▁았었다	-12.1351
▁숲속	-12.1354
▁열두	-12.1357
▁엄두	-12.1359
▁열중	-12.1374
▁제자들	-12.1377
▁참다	-12.1379
커녕	-12.1379
남매	-12.1382
텍	-12.1399
▁았는가	-12.1399
▁단골	-12.14
▁유쾌	-12.1404
▁왕성	-12.1406
▁솟구	-12.141
▁견지	-12.1418
▁옹기	-12.1421
▁대는	-12.1428
▁전라도	-12.1431
▁도덕성	-12.1433
▁양산	-12.1433
▁함축	-12.1435
▁전갈	-12.1449
겄	-12.145
켈	-12.145
▁아하는	-12.145
▁갈아입	-12.145
▁동아일보	-12.145
▁명목	-12.1453
▁미로	-12.1453
▁슬퍼	-12.1455
▁고려대	-12.1463
▁땅바닥	-12.1463
▁토막	-12.1464
▁혁명적	-12.1465
▁두께	-12.1469
▁한국전쟁	-12.1471
▁미워	-12.1474
▁하고는	-12.1475
서이다	-12.1478
▁공책	-12.1485
▁영호	-12.1487
▁저주	-12.1489
▁돌멩이	-12.1501
▁뮌헨	-12.1501
밋	-12.1501
▁노태우	-12.1501
▁코끼리	-12.1504
▁사회문제	-12.1504
▁각별	-12.1505
얀	-12.1506
급여	-12.1506
▁맹세	-12.1511
즉	-12.1513
먹고	-12.1515
▁한국인들	-12.1519
▁분별	-12.1522
▁밀어	-12.1525
si	-12.153
▁부임	-12.1532
맞춘	-12.1536
▁공천	-12.1537
▁본국	-12.1543
스토	-12.1543
▁빨라	-12.1546
▁자연주의	-12.1546
▁찬란	-12.1552
▁헝가리	-12.1552
냅	-12.1552
▁순임이	-12.1553
▁라오스	-12.1553
▁엉망	-12.1555
▁덩달	-12.1555
공고	-12.1557
▁압도	-12.1562
▁걸릴	-12.157
▁처박	-12.1575
▁직결	-12.1577
▁여학생들	-12.1578
▁조제	-12.1588
▁임마	-12.159
▁조만	-12.1599
상태다	-12.1601
,	-12.1604
▁케이블	-12.1604
▁밤낮	-12.1606
ill	-12.1608
▁시장경제	-12.1616
▁올라온	-12.1617
▁특수성	-12.1618
▁어내고	-12.1627
▁전담	-12.1629
▁헌신	-12.1629
▁조짐	-12.1632
▁미니	-12.1633
▁한사람	-12.1635
▁이어서	-12.1645
▁독신	-12.1645
그때	-12.1646
▁재발	-12.1649
▁청각	-12.1651
수첩	-12.1653
▁국제화	-12.1653
▁알레르기	-12.1656
춥	-12.1656
보따리	-12.1656
▁간난이	-12.1658
생태학	-12.1658
▁공안	-12.1664
▁추궁	-12.1667
고픈	-12.1667
▁신령	-12.1669
▁크리스	-12.1676
▁유력	-12.1679
▁공헌	-12.1681
▁거창	-12.1682
▁최고위원	-12.1682
▁함유	-12.1684
▁금성	-12.1685
날로	-12.1687
댕	-12.169
▁전승	-12.1691
▁에서처럼	-12.1692
▁직장인	-12.1697
▁호화	-12.1697
▁불균형	-12.1708
뒹굴	-12.1708
▁사무총장	-12.1708
▁브라운	-12.1709
▁실명	-12.171
▁순응	-12.1713
▁등록금	-12.1713
▁희극	-12.1717
문화권	-12.1721
간호사	-12.1721
회사인	-12.1723
▁끌려가	-12.1725
▁임상	-12.1725
▁우상	-12.1728
▁황당	-12.1731
벌판	-12.1745
▁배포	-12.1746
▁감사원	-12.1747
▁김용	-12.1751
▁문화연구	-12.1756
▁금기	-12.1757
픽	-12.1757
▁넥타이	-12.176
▁불투명	-12.176
▁되돌려	-12.176
▁실천적	-12.1763
달라는	-12.1764
▁부속	-12.1764
▁발가락	-12.1766
▁시흥	-12.1766
원자력	-12.1769
▁비교할	-12.1772
▁통찰	-12.1773
EA	-12.1774
▁퇴계	-12.1776
▁도시락	-12.1777
이끄	-12.1779
▁숙명	-12.1786
▁산출	-12.1793
▁염소	-12.1796
▁끌어올	-12.1798
▁담화	-12.1798
age	-12.1799
감축	-12.1803
▁장터	-12.1805
▁불타	-12.1807
짤	-12.1811
▁재활용	-12.1812
▁이산화탄소	-12.1813
▁포르투갈	-12.1813
▁풍선	-12.1814
▁독창적	-12.1816
약품	-12.1816
▁학점	-12.1818
▁으라	-12.1821
▁무너져	-12.1821
▁프랑	-12.1821
▁친숙	-12.1829
▁침투	-12.183
ff	-12.1836
▁쏘아	-12.1848
▁치즈	-12.1854
듭	-12.1859
▁반란	-12.1862
▁멀티미디어	-12.1866
▁바이올린	-12.1866
툴	-12.1866
▁뛰쳐나	-12.1866
바느질	-12.1866
▁중산층	-12.1866
▁북방	-12.1866
▁입안	-12.1867
버섯	-12.1867
▁치솟	-12.1874
떼기	-12.1874
녔	-12.1874
농도	-12.1875
▁새마을	-12.1875
▁여행자	-12.1876
ess	-12.1888
유예	-12.189
▁몇번	-12.1892
▁소아	-12.19
mp	-12.1903
금강	-12.191
▁역대	-12.1914
냇	-12.1917
▁유년	-12.1917
빡	-12.1919
▁이벤트	-12.1919
▁몽땅	-12.1919
▁응답자	-12.192
▁소홀히	-12.1924
▁최소	-12.1926
▁폐기	-12.1932
었습니다	-12.1936
▁실례	-12.1942
▁재정적	-12.195
▁소작	-12.1951
▁비결	-12.1953
▁외우	-12.1953
대가리	-12.1958
▁연민	-12.1959
▁권고	-12.1962
▁드문	-12.1967
▁군인들	-12.1967
▁신전	-12.1968
겠는가	-12.1969
▁싱가포르	-12.1972
▁필리핀	-12.1972
컫	-12.1972
▁엇갈	-12.1973
▁깜박	-12.1973
▁악몽	-12.1975
▁다섯째	-12.1976
ag	-12.1976
▁열거	-12.1981
▁기웃거	-12.1984
▁워진	-12.1987
▁응급	-12.1989
▁공유하	-12.199
▁출토	-12.1993
▁상영	-12.1994
만이라도	-12.1995
▁합치	-12.2
▁석방	-12.2004
▁따스	-12.2004
펴	-12.2016
똑	-12.2019
▁광대	-12.2022
롯	-12.2022
▁날려	-12.2023
▁차별화	-12.2026
▁돌이켜	-12.2027
▁귀가	-12.2027
▁뒷산	-12.2029
▁쾌감	-12.203
▁재개	-12.2034
▁올라와	-12.2035
▁끼어	-12.204
직물	-12.2041
보드	-12.2045
ell	-12.2047
▁더라는	-12.2047
▁벽화	-12.2047
▁여름철	-12.2048
▁행방	-12.205
국악	-12.205
▁자유주의	-12.2051
협약	-12.2058
DP	-12.2065
▁환원	-12.2067
▁청년들	-12.207
▁잠실	-12.2073
▁신경계	-12.2074
▁산림	-12.2079
▁어렴풋	-12.208
믄	-12.208
셔츠	-12.2081
▁겠냐	-12.2083
▁거세	-12.2084
▁씩씩	-12.2085
정신과	-12.2086
깨워	-12.2099
▁십여	-12.2109
ton	-12.2113
▁절제	-12.2115
▁정서적	-12.2116
분업	-12.2121
▁정교	-12.2122
게요	-12.2123
궂	-12.2134
▁합리성	-12.2135
▁지저분	-12.2135
▁피의자	-12.2136
눌렀	-12.2137
▁되살아	-12.2138
res	-12.214
▁죄수	-12.2141
▁탐색	-12.2144
▁안기부	-12.2144
커트	-12.2151
▁주둔	-12.2157
▁노파	-12.2161
행태	-12.2162
채무	-12.2168
▁두말	-12.2168
넘긴	-12.217
유학생	-12.2172
▁신흥	-12.2173
▁미혼	-12.2174
▁근심	-12.2179
샌	-12.2179
▁경제적인	-12.2182
▁스며	-12.2185
▁촛불	-12.2189
▁곰곰	-12.219
파워	-12.219
▁전송	-12.219
▁모둠	-12.219
▁의료행위	-12.2193
램	-12.2196
▁잔소리	-12.2199
▁일반인들	-12.2202
장악하	-12.2202
▁소환	-12.2205
▁치료적	-12.2209
▁치중	-12.2211
▁축복	-12.2212
▁자본가	-12.2218
▁오죽	-12.2222
못된	-12.2222
잖아요	-12.2228
ial	-12.2232
▁꿈속	-12.2232
▁천안	-12.2236
▁려다가	-12.2241
윌	-12.2244
▁검은색	-12.2244
▁허벅지	-12.2244
▁백두산	-12.2244
기념관	-12.2244
▁덤벼	-12.2244
▁쾌락	-12.2245
▁굴뚝	-12.2245
▁담뱃	-12.2247
▁싸늘	-12.225
포럼	-12.2251
사업자	-12.2252
거든요	-12.226
▁뭐냐	-12.2261
▁표본	-12.2263
▁환경활동	-12.2263
▁산업사회	-12.2266
▁유능	-12.2274
▁일본어	-12.228
▁현대사회	-12.2281
▁모욕	-12.2284
▁강행	-12.2288
▁가늠	-12.2289
▁평안	-12.2291
▁부각되	-12.2292
루스	-12.2298
▁라든지	-12.2298
▁멕시코	-12.2299
▁스웨덴	-12.2299
썬	-12.2299
▁헤겔	-12.23
▁시던	-12.23
▁태조	-12.23
▁배타적	-12.2309
▁인접	-12.231
▁전면적	-12.2313
▁막론	-12.2314
▁가속화	-12.2316
▁생물학적	-12.232
방언	-12.2322
▁왕래	-12.2323
▁설문	-12.2329
▁그리스도	-12.2333
▁po	-12.2342
▁걸터	-12.2349
▁후배들	-12.2354
▁막걸리	-12.2355
▁산길	-12.2355
▁한복판	-12.2355
▁쪼개	-12.2358
블록	-12.2359
▁의견조사	-12.2359
▁었는지도	-12.2369
▁워진다	-12.2373
▁공통적	-12.2374
▁비친	-12.2374
▁배설	-12.2377
▁유권자들	-12.2379
▁반론	-12.2381
▁후퇴	-12.2398
▁일삼	-12.2399
▁실종	-12.24
녕	-12.2401
▁정상화	-12.2404
늑	-12.2406
▁서늘	-12.2408
휙	-12.2411
▁오징어	-12.2411
▁월요일	-12.2411
▁세계대전	-12.2411
▁월남	-12.2418
▁율곡	-12.2419
▁복합적	-12.2419
▁아이고	-12.2421
연구실	-12.2425
▁깨물	-12.2429
▁농구	-12.243
▁더라구	-12.2431
▁돌개	-12.2433
▁Re	-12.2433
▁연행	-12.2442
▁순조	-12.2443
▁품위	-12.2447
▁소신	-12.2447
▁삼키	-12.2457
▁었느냐	-12.2464
▁배후	-12.2466
펼쳐진	-12.2467
▁사투리	-12.2467
▁재구성	-12.2467
놀리	-12.2468
▁교통사고	-12.2468
▁정답	-12.247
▁컬러	-12.247
cy	-12.2471
강령	-12.2474
▁큰새	-12.2483
▁본격	-12.2484
▁교수님	-12.2486
▁움과	-12.2489
우량	-12.2491
▁정돈	-12.2493
▁조급	-12.2497
▁채란	-12.2501
▁삼각	-12.2504
▁외무	-12.2506
▁최소화	-12.2506
▁신축	-12.2508
▁장악	-12.2508
랫	-12.2511
▁항공기	-12.2516
▁왕위	-12.2516
▁트레	-12.2519
if	-12.2522
깜	-12.2522
낱	-12.2523
▁소용돌이	-12.2524
▁기꺼이	-12.2524
▁상민	-12.2525
▁피어	-12.2525
▁흑백	-12.2526
홈런	-12.2528
▁행진	-12.253
▁스토리	-12.253
▁셔야	-12.2531
삼각형	-12.2531
받침	-12.2535
▁변소	-12.2537
▁라면서	-12.2538
▁방출	-12.2538
▁빈약	-12.2543
▁납치	-12.2543
▁매월	-12.2547
랭이	-12.2549
▁진보적	-12.2551
피웠	-12.2551
Ch	-12.2554
맺	-12.2554
어올라	-12.2562
▁박탈	-12.2565
▁군중	-12.2567
홉	-12.2567
▁버린다	-12.2571
▁무식	-12.2574
▁었더라	-12.258
▁수수께끼	-12.258
▁영등포	-12.258
▁복용	-12.2581
목욕탕	-12.2582
▁가리켜	-12.2583
▁저거	-12.2583
▁탈퇴	-12.2587
▁삽화	-12.2588
▁숨쉬	-12.2589
▁야외	-12.259
▁제도화	-12.2592
연합회	-12.2595
▁교황	-12.2596
규격	-12.2596
▁종족	-12.2598
▁재무부	-12.26
▁군주	-12.2604
▁려다	-12.2605
훑	-12.2608
▁팔려	-12.2609
▁수학적	-12.261
▁연필	-12.2616
▁원칙적	-12.262
▁달력	-12.2621
▁단결	-12.2622
▁어딜	-12.2625
▁불완전	-12.2627
au	-12.2627
밴	-12.2634
▁어리둥절	-12.2637
▁히딩크	-12.2637
팜	-12.2637
▁후유증	-12.2638
무더기	-12.2638
▁경상도	-12.2638
▁보편화	-12.2638
미혜	-12.2638
▁kg	-12.2639
▁손잡이	-12.2645
▁쳐다	-12.2648
▁변함	-12.2651
▁출발점	-12.2657
▁통틀	-12.2659
▁올려다	-12.266
▁변질	-12.2666
▁재고	-12.2666
▁환경문제	-12.2668
엔지	-12.2669
▁망명	-12.2674
소변	-12.2677
▁미세	-12.2681
▁영선	-12.2683
▁형평	-12.269
펀	-12.2691
뻑	-12.2695
▁www	-12.2695
▁레스토랑	-12.2695
▁패러다임	-12.2695
▁한순간	-12.2696
▁졸라	-12.2696
▁바닷물	-12.2698
▁잔잔	-12.2701
실습	-12.2704
▁탈락	-12.2704
▁거액	-12.2705
▁테지	-12.2713
▁일본인들	-12.2716
▁비위	-12.2727
새기	-12.2732
▁속옷	-12.2732
▁강당	-12.2737
▁압도적	-12.2738
▁공정성	-12.2739
▁었음에	-12.2743
▁창의력	-12.2753
▁태극기	-12.2753
▁고혈압	-12.2753
▁얽매	-12.2755
▁열망	-12.2762
▁탈피	-12.2767
▁임종	-12.2772
▁워지는	-12.2775
▁결말	-12.2776
▁GM	-12.2783
▁망가	-12.2794
▁동현	-12.28
교역	-12.28
▁테마	-12.28
▁이성적	-12.2804
▁주례	-12.2805
멤버	-12.2811
▁었으리라	-12.2812
ory	-12.2814
▁무릅	-12.2815
▁연쇄	-12.2815
▁완강	-12.282
언론들	-12.2824
라이트	-12.2825
▁간행	-12.2827
▁벗기	-12.2831
▁짜여	-12.2833
▁재즈	-12.2842
▁우아	-12.2845
▁궁전	-12.2852
▁고전적	-12.2865
▁교단	-12.2865
▁줘야	-12.2867
▁부류	-12.2868
▁빨갱이	-12.2869
▁공평	-12.2871
▁포교	-12.2871
▁옷차림	-12.2872
용액	-12.2873
총련	-12.2877
▁운데	-12.2879
▁체념	-12.2879
▁박기자	-12.288
▁용돈	-12.2882
LA	-12.2885
▁잡초	-12.2886
▁떨쳐	-12.2891
ence	-12.2895
▁양주	-12.2895
미숙	-12.2898
tor	-12.2905
ub	-12.2908
노비	-12.2911
▁당숙	-12.2911
건수	-12.2918
나팔	-12.2924
북도	-12.2928
뽕	-12.2928
찧	-12.2928
▁훗날	-12.2928
▁한겨레	-12.2928
▁후진국	-12.2929
▁었구나	-12.2932
공립	-12.2934
▁위험성	-12.2955
▁음모	-12.296
▁맞물	-12.2961
▁겠고	-12.2972
▁노랑	-12.2981
▁입체	-12.2983
윙	-12.2987
▁해바라기	-12.2987
밉	-12.2987
▁머뭇거	-12.2987
▁금요일	-12.2987
파이프	-12.299
▁영배	-12.299
ist	-12.299
▁동준	-12.2991
▁몸매	-12.2992
▁낮잠	-12.2993
▁완료	-12.2993
▁웃음소리	-12.2996
▁객관성	-12.2999
▁비탈	-12.2999
▁설계사	-12.2999
▁마이클	-12.3003
▁몽고	-12.3009
▁착용	-12.3011
소득세	-12.3013
고고학	-12.3021
▁우익	-12.3022
▁마포	-12.3024
▁조상들	-12.3026
▁위쪽	-12.3027
노스	-12.3033
걱	-12.3041
▁갈증	-12.3046
▁경복궁	-12.3047
▁햄릿	-12.3047
간담회	-12.3047
▁실컷	-12.3048
▁정중	-12.3053
▁부딪쳐	-12.3054
▁활력	-12.3055
▁고려시대	-12.306
▁혜린	-12.306
▁삭제	-12.3063
▁끊어	-12.3063
▁본디	-12.3066
▁최악	-12.3073
▁유심	-12.3075
▁근로자들	-12.3076
▁유권자	-12.3081
▁용술	-12.3082
▁목포	-12.3088
▁영남	-12.3089
▁풍성	-12.3102
▁경매	-12.3106
▁쿠데타	-12.3107
넬	-12.3107
쬐	-12.3107
▁오렌지	-12.3107
칼슘	-12.3107
▁이승범	-12.3107
▁워지고	-12.3108
▁소희	-12.3109
▁문학작품	-12.311
검색	-12.3113
▁지리적	-12.3118
▁최씨	-12.3121
찌개	-12.3123
▁생리적	-12.3124
▁고서도	-12.3126
▁궁중	-12.3127
▁았던가	-12.3128
총액	-12.313
▁지배층	-12.3131
과대학	-12.3132
▁척도	-12.3136
▁골치	-12.3138
▁소통	-12.3139
오픈	-12.3146
▁참신	-12.3147
르친	-12.3149
▁번번	-12.3149
메우	-12.3154
▁일그러	-12.3165
낌	-12.3166
▁공군	-12.3166
뉜	-12.3167
켠	-12.3167
터미널	-12.3167
▁전두환	-12.3167
▁로버트	-12.3167
▁별님이	-12.3167
▁하루하루	-12.3167
▁맹목적	-12.3168
▁부끄러움	-12.3168
▁웠습니다	-12.3169
up	-12.317
▁공터	-12.3172
▁전념	-12.3179
▁스피	-12.3179
벨트	-12.3179
▁특질	-12.3182
▁동아리	-12.3185
▁물리치	-12.3186
▁삼포	-12.3187
▁따돌	-12.3187
▁합당	-12.3189
▁당내	-12.3191
▁시범	-12.3195
▁스며들	-12.3195
tra	-12.3198
▁출제	-12.3202
▁육지	-12.3203
▁부칠	-12.3208
▁단락	-12.3209
▁경제성장	-12.3211
▁선포	-12.3219
▁창간	-12.3222
Z	-12.3228
▁고르바초프	-12.3228
▁인도네시아	-12.3228
귄	-12.3228
탠	-12.3228
▁아이스크림	-12.3228
▁매스컴	-12.3228
▁전교조	-12.3228
▁매듭	-12.3229
차곡	-12.3231
▁무질서	-12.3236
▁하나같	-12.3239
칼라	-12.324
▁비애	-12.3241
▁기어이	-12.3245
▁유기적	-12.3248
특위	-12.3253
▁입찰	-12.3256
▁주술	-12.3258
예절	-12.3265
lu	-12.3267
▁절로	-12.3269
▁체온	-12.3269
집게	-12.3276
햇	-12.3287
얄	-12.3289
뚤	-12.3289
▁까마귀	-12.3289
▁아이러니	-12.3289
복권	-12.3289
▁재편	-12.3289
샌드	-12.33
▁에이즈	-12.33
▁창가	-12.3303
du	-12.3308
▁상응	-12.331
▁중학생	-12.3311
청탁	-12.3311
▁역사학	-12.3311
▁휴지	-12.3312
다가와	-12.3313
래요	-12.3313
▁부응	-12.3317
강세	-12.3319
ner	-12.332
▁었소	-12.3326
▁사생활	-12.333
▁유희	-12.3337
▁강남구	-12.334
▁객관	-12.3348
딕	-12.335
랏	-12.335
엷	-12.335
콘서트	-12.335
▁흐뭇	-12.335
▁움츠	-12.3353
라이프	-12.3354
▁자랑스러	-12.3356
▁배낭	-12.3359
▁피터	-12.336
▁정신없	-12.3361
읽	-12.3361
▁착취	-12.3364
▁후반기	-12.3367
▁지점장	-12.3367
는군요	-12.3367
▁원고지	-12.3368
▁지난날	-12.3376
주장이	-12.3378
역력	-12.3382
▁음력	-12.3385
▁무능	-12.3385
▁신촌	-12.3389
▁음미	-12.3391
go	-12.3395
▁찬물	-12.3396
걸레	-12.3402
▁미덕	-12.341
끗	-12.3411
헉	-12.3412
▁바그다드	-12.3412
▁임진왜란	-12.3412
숯	-12.3412
좆	-12.3412
▁토마토	-12.3412
▁대여섯	-12.3412
▁어주었다	-12.3413
▁시청률	-12.3413
▁쪼그	-12.3414
▁고대국가	-12.3416
자격증	-12.342
▁행세	-12.3421
▁방편	-12.3422
▁십자가	-12.3422
▁흐려	-12.3425
징수	-12.3427
son	-12.3428
▁수익성	-12.3429
▁낭만	-12.343
▁초대소	-12.343
▁실용적	-12.3431
듣	-12.3432
ke	-12.3439
▁세균	-12.3442
▁대본	-12.3449
▁장작	-12.3452
▁표상	-12.3463
울림	-12.3464
▁동독	-12.3467
▁창당	-12.3469
▁외침	-12.3473
▁염색체	-12.3474
깬	-12.3474
쁠	-12.3474
잽	-12.3474
▁김형사	-12.3474
▁었겠	-12.3475
▁베니스	-12.3475
▁우며	-12.3479
▁저렴	-12.3481
▁증폭	-12.3483
▁힘겨	-12.3484
▁빚어	-12.3492
▁화끈	-12.3501
▁체크	-12.3506
▁전문화	-12.3507
쩌	-12.3513
▁어지간	-12.3518
▁환호	-12.3522
▁참새	-12.3527
▁풍수	-12.3528
듀	-12.3536
셰	-12.3536
▁심각성	-12.3536
▁나아갈	-12.3537
▁특혜	-12.3538
▁희랍	-12.3539
▁정보화사회	-12.354
▁손수건	-12.3542
▁강릉	-12.3543
▁음양	-12.3544
▁베일	-12.3544
▁대낮	-12.3545
▁적막	-12.3545
▁배반	-12.3545
▁가급적	-12.3546
▁청나라	-12.3546
▁간첩	-12.3549
▁눈여겨	-12.3555
▁용감	-12.3557
▁주어야	-12.3558
▁관례	-12.3559
▁잡음	-12.3563
▁금품	-12.3572
및	-12.3579
▁목청	-12.3581
▁감행	-12.3586
▁막막	-12.3586
레이스	-12.3593
▁정월	-12.3593
▁옥상	-12.3594
▁베스트셀러	-12.3599
▁신데렐라	-12.3599
▁캐릭터	-12.3599
▁결핍	-12.3599
▁소품	-12.36
옆	-12.36
▁횡포	-12.3602
정상회담	-12.3603
▁짝귀	-12.3604
▁연예	-12.3605
▁삽입	-12.3607
▁출혈	-12.3607
▁어대는	-12.3617
▁장기간	-12.3618
▁완공	-12.362
▁거룩	-12.362
▁낭만적	-12.363
▁훑어	-12.3632
▁흥미로	-12.3633
토론회	-12.3634
▁분출	-12.3635
여놓	-12.3636
▁치욕	-12.3639
▁원씩	-12.3654
▁당국자	-12.3658
타운	-12.366
ard	-12.366
▁송파	-12.366
▁대열	-12.3662
맏	-12.3662
▁하드웨어	-12.3662
띈	-12.3662
▁평준화	-12.3662
▁사춘기	-12.3663
▁콩나물	-12.3663
꼭꼭	-12.3663
▁다갔다	-12.3666
밴드	-12.3666
베이스	-12.3667
▁경멸	-12.3671
▁석회	-12.3672
▁촉각	-12.3675
▁메리	-12.368
▁주세요	-12.3681
▁싸운	-12.3684
▁넘겼	-12.3685
▁종소리	-12.3685
▁공짜	-12.3685
▁욕실	-12.369
싸여	-12.369
▁택지	-12.371
▁토양	-12.3724
▁병식이형	-12.3726
▁비스듬	-12.3726
뀔	-12.3726
돗	-12.3726
▁정책결정	-12.3726
▁젓가락	-12.3726
▁벼랑	-12.3729
▁샤워	-12.3729
견주	-12.3731
▁민족통일	-12.3732
▁목구멍	-12.3735
▁사촌	-12.3736
▁보험회사	-12.3737
▁성냥	-12.3739
▁옆집	-12.374
▁멸치	-12.3741
▁꼬집	-12.3744
▁군림	-12.3757
영화제	-12.376
▁소견	-12.3762
▁몇년	-12.3764
▁콜라	-12.3767
▁IA	-12.377
▁갈망	-12.3772
▁소름	-12.3776
▁무너뜨	-12.378
여고	-12.3781
▁노루	-12.3787
▁결실	-12.3788
콕	-12.379
킥	-12.379
▁고등학생	-12.379
▁순금이	-12.3791
▁불이익	-12.3791
▁터전	-12.3791
▁사대부	-12.3792
▁쇄국	-12.3793
▁천주교	-12.3793
▁파멸	-12.3799
▁호칭	-12.3803
▁손꼽	-12.3805
▁수정란	-12.3808
▁회견	-12.3809
▁패스	-12.3813
▁었잖아	-12.3826
▁전통문화	-12.3834
▁조립	-12.3834
▁재판부	-12.3835
▁순종	-12.3838
▁대나무	-12.384
▁유망	-12.3852
톡	-12.3855
▁셰익스피어	-12.3855
쯔	-12.3855
▁삼국사기	-12.3855
▁유태인	-12.3856
▁거침없	-12.3858
▁우울증	-12.3859
기초연구	-12.3862
▁어버리	-12.3871
▁키드	-12.3873
▁부쩍	-12.3875
등기	-12.3876
▁레닌	-12.3876
▁어져야	-12.3877
▁형편없	-12.3888
▁유추	-12.3888
전시관	-12.3893
▁그러면서	-12.3893
BS	-12.3894
▁잡아당	-12.3905
▁동무들	-12.3908
▁가톨릭	-12.392
▁아스팔트	-12.392
뤘	-12.392
셜	-12.392
▁대주주	-12.392
▁떠들썩	-12.3921
차대전	-12.3921
으랴	-12.3921
▁권태	-12.3922
▁구석기	-12.3924
고무신	-12.3926
▁평화로	-12.3927
▁빗물	-12.3928
▁포크	-12.3929
▁에게까지	-12.393
▁과학혁명	-12.3931
▁배꼽	-12.3933
▁판소리	-12.394
▁엄지	-12.3942
▁혈연	-12.3943
ip	-12.395
▁합류	-12.3954
der	-12.3984
찌꺼기	-12.3985
▁열등감	-12.3985
귀퉁이	-12.3985
▁원동력	-12.3985
▁어딘지	-12.3985
텔레콤	-12.3985
▁금융감독	-12.3988
▁날카	-12.3988
▁는지에	-12.3988
▁현세	-12.3991
▁폐허	-12.3991
▁박사님	-12.3994
언어학	-12.3995
커니	-12.3996
▁현존	-12.3998
▁창녀	-12.3999
▁사이버	-12.4002
▁숙박	-12.4002
▁St	-12.4003
▁봉급	-12.4008
▁학업	-12.4017
▁화엄	-12.402
가능한	-12.4027
▁토의	-12.4029
▁문항	-12.4038
pr	-12.4038
▁염원	-12.4039
▁집안일	-12.404
▁벽면	-12.4049
▁목덜미	-12.4051
▁코페르니쿠스	-12.4051
▁천막	-12.4052
▁갯벌	-12.4052
멘트	-12.4052
▁타결	-12.4053
▁드러누	-12.4054
▁중견	-12.4055
▁장군님	-12.4055
▁틀림	-12.4057
▁부릅	-12.4061
디스크	-12.4061
▁겠느냐는	-12.4063
▁척추	-12.4068
▁존속	-12.4071
수용소	-12.4072
▁범행	-12.4072
▁숨소리	-12.4074
▁떠맡	-12.4076
og	-12.4083
체육관	-12.4084
▁대표단	-12.4087
▁성관계	-12.4088
▁폐단	-12.4088
▁참외	-12.4091
▁앞쪽	-12.4093
▁철회	-12.4104
테르	-12.4105
DI	-12.4109
꿔	-12.4114
▁으뜸	-12.4117
▁들어앉	-12.4119
▁한의사	-12.4121
▁음주	-12.4122
▁CF	-12.4122
▁라이터	-12.4125
▁병사들	-12.4126
par	-12.4129
▁특기	-12.413
▁웠고	-12.4147
▁화초	-12.4164
▁강점	-12.4173
▁그럭저럭	-12.4184
▁재검토	-12.4184
갸	-12.4184
테크놀로지	-12.4184
▁여편네	-12.4184
▁인디언	-12.4184
▁뚱뚱	-12.4184
▁두리번거	-12.4184
▁머슴	-12.4185
▁성벽	-12.4185
▁암흑	-12.4186
▁목사님	-12.4187
중개	-12.4189
▁가로등	-12.4192
센트	-12.4204
▁출입구	-12.4209
학살	-12.4215
▁진압	-12.4219
▁육십	-12.422
▁누에	-12.424
▁든든	-12.4244
▁예속	-12.4244
▁특사	-12.4244
엇	-12.4248
▁레지투이	-12.4251
▁쫓겨나	-12.4251
▁페르시아	-12.4251
▁몽둥이	-12.4251
▁교무실	-12.4251
▁서유럽	-12.4251
▁어냈다	-12.4253
▁체계화	-12.4253
ck	-12.4254
▁늑대	-12.4257
▁재소자	-12.4258
▁벌금	-12.426
▁생방송	-12.4262
▁효력	-12.4263
▁원초적	-12.4269
▁소홀	-12.4269
▁흐리	-12.4284
▁아껴	-12.4294
▁단기적	-12.4304
▁굉장	-12.4314
엣	-12.4318
▁재봉틀	-12.4318
▁쿠웨이트	-12.4318
▁권상무	-12.4319
▁뒤통수	-12.4319
▁벨기에	-12.4319
수수료	-12.432
▁환경단체	-12.4322
첨차	-12.4332
르바	-12.4332
▁가져와	-12.4333
▁정통성	-12.4338
▁아래쪽	-12.4344
▁겠느냐고	-12.4348
▁김선생	-12.435
▁현순	-12.4355
▁현역	-12.4362
▁배척	-12.4364
all	-12.4367
▁원작	-12.4368
▁위탁	-12.437
▁연암	-12.4371
슬금	-12.4372
터졌	-12.4375
▁연구자들	-12.4376
▁융자	-12.4376
▁처형	-12.4379
▁었거든	-12.4383
챔피언	-12.4386
▁흠뻑	-12.4387
탱크	-12.4389
▁끼얹	-12.4389
▁융합	-12.439
▁하필이	-12.4394
▁충당	-12.4396
보조금	-12.44
▁벤치	-12.4407
▁잔디	-12.4408
타이어	-12.4409
▁논평	-12.4412
둘씩	-12.4413
▁광역	-12.4423
▁찬양	-12.4427
IC	-12.4438
▁갈릴레오	-12.4455
▁프로그래밍	-12.4455
▁서울지검	-12.4455
▁어댔다	-12.4455
▁맏딸	-12.4455
▁밤하늘	-12.4455
픽션	-12.4455
▁기숙사	-12.4456
▁후계자	-12.4457
▁정기적	-12.4457
캠프	-12.446
▁설거지	-12.4461
▁케이스	-12.4462
▁정치자금	-12.4465
카르	-12.4465
▁도둑질	-12.4465
▁행여	-12.4469
부랴	-12.4482
▁긴장감	-12.4486
▁여자애	-12.4513
▁개발도상국	-12.4524
▁베를린	-12.4524
ly	-12.4524
▁기껏해	-12.4524
▁으세요	-12.4524
▁섬뜩	-12.4525
방망이	-12.4525
▁실무자	-12.4528
넘어갔	-12.4535
▁춘천	-12.4536
▁토착	-12.4537
▁속셈	-12.4549
▁채취	-12.4554
▁영위	-12.4556
버그	-12.456
cul	-12.4562
▁역설적	-12.4565
▁암호	-12.4566
▁데려가	-12.4567
▁미녀	-12.4569
▁위엄	-12.4578
sion	-12.4579
▁재건	-12.4582
팡	-12.4593
▁엉터리	-12.4593
▁흐트러	-12.4593
엔지니어링	-12.4593
▁스태프	-12.4593
운송	-12.4594
잠바	-12.4594
벌컥	-12.4595
▁무지개	-12.46
▁피검	-12.4601
▁칸트	-12.4601
▁였으니	-12.4602
▁음료수	-12.4605
▁사냥꾼	-12.4607
▁마흔	-12.4608
불황	-12.4611
▁움에	-12.4618
▁미움	-12.4619
▁김홍	-12.462
▁겨울철	-12.4623
▁정년	-12.4624
▁김혜	-12.4625
ry	-12.4634
▁어간다	-12.4639
▁어이없	-12.4641
ant	-12.4644
▁실마리	-12.4663
▁돈벌이	-12.4664
▁청바지	-12.467
▁하소연	-12.4672
▁동북아	-12.4673
▁무의식적	-12.4685
▁수긍	-12.4686
▁세속적	-12.4691
▁어버리고	-12.4695
▁노후	-12.4698
▁줬다	-12.4702
▁필요없	-12.4702
▁새까	-12.4707
훼	-12.4733
▁들여다	-12.4734
▁엘리어트	-12.4734
▁제멋대로	-12.4734
▁헐리우드	-12.4734
▁호찌민	-12.4734
퓨	-12.4734
▁무궁화	-12.4734
▁대합실	-12.4734
▁신입생	-12.4734
▁티셔츠	-12.4734
파운드	-12.4735
▁열렬	-12.4742
잠재력	-12.4743
▁간략	-12.475
▁몇가지	-12.4755
댕기	-12.4758
▁이웃집	-12.4762
▁결속	-12.4767
▁통곡	-12.4769
▁황급	-12.4776
음악회	-12.4778
가입자	-12.4779
▁세밀	-12.4796
▁마지못	-12.4805
▁한밤중	-12.4805
▁유형기	-12.4805
▁줄줄이	-12.4805
▁돼지고기	-12.4805
▁WT	-12.4807
버럭	-12.4808
▁으냐	-12.4808
마르크	-12.4809
▁아낙네	-12.4811
▁외곽	-12.4811
▁체내	-12.482
▁이뤄진	-12.4822
▁변증법적	-12.4824
▁원주민들	-12.4826
페이스	-12.4828
▁뛰어내	-12.4837
▁흥행	-12.4842
▁천황	-12.4843
▁공공연	-12.485
ep	-12.4851
▁반듯	-12.4855
저널	-12.4858
ens	-12.4863
통신망	-12.4874
▁톡톡	-12.4876
▁느긋	-12.4879
▁커플	-12.488
▁상쾌	-12.4886
▁부조리	-12.4895
▁맨발	-12.4899
▁발족	-12.4906
드레스	-12.4907
▁기까지는	-12.4925
▁농민회	-12.4943
▁황색	-12.4944
▁오스트리아	-12.4948
▁카운터	-12.4948
▁울부짖	-12.4948
▁강신애	-12.4948
▁온라인	-12.4951
▁변천	-12.4951
▁합법적	-12.4958
▁버림	-12.4959
▁경비정	-12.4962
▁독립운동	-12.4967
▁긴요	-12.4967
▁당혹	-12.4971
▁De	-12.4974
장자리	-12.4977
▁민망	-12.4981
▁김밥	-12.4982
▁주춤	-12.4986
갈피	-12.4987
▁양손	-12.4988
sis	-12.499
메르	-12.4996
▁사랑채	-12.5001
▁으라는	-12.5006
▁Le	-12.5006
▁진달래	-12.502
▁빽빽	-12.502
▁토지소유	-12.5021
▁동남아	-12.5021
▁새롬이	-12.5021
▁우스꽝스	-12.5021
▁헨리	-12.5021
▁저번	-12.5022
▁외무부	-12.5032
▁상승세	-12.5033
▁명쾌	-12.5033
▁불규칙	-12.5036
▁술자리	-12.5038
▁냉소	-12.504
▁본격화	-12.504
▁옥점	-12.5044
▁국민은행	-12.5044
▁아우성	-12.5053
CC	-12.5061
▁휴일	-12.5064
ary	-12.5067
▁학설	-12.5068
▁모국어	-12.5094
비자금	-12.5094
▁베이징	-12.5094
▁이재필	-12.5095
▁공공의료	-12.5095
iv	-12.51
▁주식시장	-12.5103
트로이	-12.5106
테스트	-12.5107
▁헤어져	-12.511
▁명확히	-12.5113
▁확연	-12.512
▁허탈	-12.5121
▁가로질	-12.5122
▁소중히	-12.5125
▁종료	-12.5126
ty	-12.5136
▁저작권법	-12.5139
▁으리	-12.5144
pp	-12.5147
▁악순환	-12.5167
▁인플레이션	-12.5167
▁케네디	-12.5167
▁꽁꽁	-12.5167
▁창의성	-12.5167
주가지수	-12.5168
앨범	-12.5168
▁변두리	-12.5169
▁신경섬유	-12.517
▁보사부	-12.5172
능률	-12.5174
▁정보기술	-12.5181
▁효용	-12.5189
▁십분	-12.5192
ical	-12.5198
▁유족	-12.5207
검열	-12.5211
▁환각	-12.5211
▁핵폐기	-12.5233
▁땅속	-12.5238
▁뒷골목	-12.5241
▁중공군	-12.5241
▁평상시	-12.5241
▁또렷	-12.5243
▁여대생	-12.5245
▁완결	-12.525
▁죄악	-12.5251
▁우거	-12.5252
▁어처구니없	-12.5254
▁문화방송	-12.526
▁다양화	-12.5262
보일러	-12.5263
▁발짝	-12.5264
▁러브	-12.5267
핏줄	-12.5267
▁어들어	-12.5274
▁찡그	-12.5274
▁정황	-12.529
▁선돌	-12.5291
▁CEO	-12.5316
▁현기증	-12.5316
▁지장보살	-12.5316
▁두드려	-12.5316
▁발로자	-12.5316
▁뉴턴	-12.5316
협동조합	-12.5316
▁외무장관	-12.5316
▁연해주	-12.5317
테니스	-12.5317
▁수험생	-12.5318
마리아	-12.5323
▁연구개발	-12.5338
넘어지	-12.5338
▁암살	-12.5341
아부지	-12.5351
▁잠재적	-12.5371
▁려는데	-12.5375
▁폭발적	-12.5387
븐	-12.5391
▁최루탄	-12.5391
▁이화여대	-12.5391
▁토박이	-12.5391
▁멱살	-12.5392
부르주아	-12.5392
국립공원	-12.5393
▁만여명	-12.5396
▁일제시대	-12.54
▁굴곡	-12.54
▁공략	-12.5402
쏠리	-12.5403
누룩	-12.5404
혼례	-12.5404
▁폭격	-12.5412
▁여배우	-12.5421
▁셨던	-12.5426
▁졌을	-12.5432
▁아버리	-12.5432
댄스	-12.5454
튜	-12.5464
▁눈초리	-12.5467
▁스위치	-12.5467
▁자가용	-12.5468
▁었거나	-12.5469
▁하여간	-12.547
▁몽골	-12.5472
▁장례식	-12.5475
▁채권단	-12.5476
▁본능적	-12.5476
그릴	-12.5479
커먼	-12.5481
▁돋아	-12.5486
▁공업화	-12.5491
보자기	-12.5499
▁공손	-12.5508
ak	-12.5508
▁할리우드	-12.5543
클래식	-12.5543
▁장방형	-12.5543
▁어루만	-12.5543
▁주둥이	-12.5544
석기시대	-12.5544
수익률	-12.5545
진화론	-12.5546
▁었거든요	-12.5548
▁헤엄	-12.5549
▁비벼	-12.5553
▁극락	-12.5555
▁고전주의	-12.5565
▁연예인들	-12.5568
분위기	-12.5572
▁문맥	-12.5576
▁그리워	-12.5582
▁앙상	-12.5594
▁바닷	-12.5605
▁민간단체	-12.5605
▁헌병	-12.5615
▁센티미터	-12.562
▁걸음걸이	-12.562
▁썰렁	-12.562
▁여동생	-12.5621
▁자유민주주의	-12.5623
▁탐욕	-12.5623
▁금융산업	-12.5627
▁슬슬	-12.5628
▁무기력	-12.5631
▁조롱	-12.5641
▁누굴	-12.5644
▁권익	-12.5652
예요	-12.5685
▁외교관	-12.5688
ance	-12.5689
▁어보고	-12.5694
▁복숭아	-12.5697
▁초콜릿	-12.5697
▁프놈펜	-12.5697
프로듀서	-12.5697
▁루카치	-12.5697
▁까마득	-12.5697
▁글쓴이	-12.5697
▁갈매기	-12.5698
▁불합리	-12.5698
▁맹렬	-12.5698
▁피라미	-12.5698
▁엔젤	-12.5702
▁경쾌	-12.5703
▁우르르	-12.5705
▁객체	-12.5707
▁재건축	-12.5719
로이드	-12.572
▁한양대	-12.5722
▁발바닥	-12.5723
▁어쩐	-12.5756
져갔	-12.576
▁쭈그	-12.5764
구조물	-12.5775
▁에세이	-12.5776
▁느티나무	-12.5776
▁어마어마	-12.5776
▁외환위기	-12.5776
▁안간힘	-12.5776
▁싸구려	-12.5776
▁우러나	-12.5776
▁자그마	-12.5776
카지노	-12.5776
▁사회보장	-12.5777
▁송곳	-12.5779
범벅	-12.578
저수지	-12.578
▁고구마	-12.5785
▁매몰	-12.5786
▁두껍	-12.5787
▁생명보험	-12.5788
▁옆자리	-12.5789
▁구릉	-12.5792
▁역동적	-12.5795
▁알몸	-12.5797
▁칼날	-12.5801
▁베개	-12.5811
▁감나무	-12.582
▁쌍방	-12.5821
▁놀이터	-12.5842
어봤	-12.585
아무리	-12.5853
▁오케스트라	-12.5854
▁왜냐면	-12.5854
▁툭툭	-12.5854
▁뒤돌아	-12.5856
▁깔깔	-12.5856
▁여론조사	-12.5856
언저리	-12.5858
▁었었다	-12.5858
밸리	-12.5862
▁땅콩	-12.5866
놓을	-12.5871
▁밀착	-12.5871
▁동욱	-12.5872
▁출입문	-12.5874
▁군사력	-12.5874
▁희은	-12.5881
▁교외	-12.5885
▁창백	-12.5888
▁어쩌다가	-12.5888
ous	-12.5907
▁킬로미터	-12.5934
뤼	-12.5934
▁곰팡	-12.5934
▁대수롭	-12.5934
지언정	-12.5935
▁농작물	-12.5935
▁짤막	-12.5936
▁빗나	-12.5949
▁오디오	-12.595
▁언행	-12.5955
▁브루	-12.5967
ach	-12.5974
▁어내려	-12.598
밸	-12.6006
▁바깥쪽	-12.6014
▁봉우리	-12.6014
▁프로이트	-12.6014
▁요르단	-12.6014
우체국	-12.6014
▁하버드	-12.6014
▁큼직	-12.6016
▁푸념	-12.6017
스톤	-12.6022
▁짚신	-12.6024
지구당	-12.6029
▁환희	-12.6033
▁문턱	-12.6033
▁반대편	-12.6048
아넣	-12.6055
여객	-12.6081
va	-12.6084
꺽	-12.6094
▁홍업씨	-12.6094
▁독창성	-12.6094
▁살림살이	-12.6095
▁구경꾼	-12.6095
싱글	-12.6095
질수록	-12.6099
▁신경핵	-12.6105
▁휘말	-12.6107
▁강욱	-12.6107
▁석훈	-12.6111
▁었네	-12.6114
▁축축	-12.6118
▁신제품	-12.6122
▁Ro	-12.6131
▁신세계	-12.6138
번에	-12.6149
펑	-12.6176
▁인도차이나	-12.6176
애니메이션	-12.6176
▁자민련	-12.6176
어슬렁	-12.6176
▁당사자들	-12.6176
▁아왔다	-12.6179
MS	-12.618
▁예뻐	-12.6181
▁덕택	-12.6183
연속극	-12.6186
주전자	-12.6187
▁애벌레	-12.6192
넘어갈	-12.6194
▁조선족	-12.6195
▁노라면	-12.6196
▁항복	-12.6198
▁육박	-12.6199
노동당	-12.6202
봐요	-12.6206
▁직책	-12.6207
유연성	-12.6219
즐	-12.6236
닷	-12.6254
▁리얼리티	-12.6258
▁휴대전화	-12.6258
▁대웅전	-12.6258
▁백악관	-12.6258
▁홍길동	-12.6258
▁참기름	-12.6258
▁모내기	-12.6258
▁인건비	-12.6258
▁얘긴	-12.6265
▁어준다	-12.6266
▁았느냐	-12.6266
▁곤두세	-12.6267
▁파격적	-12.6268
쇄신	-12.6268
▁았지요	-12.6268
▁의자왕	-12.627
▁빨려	-12.6271
▁퇴출	-12.6272
▁동식이	-12.6273
▁발끝	-12.6276
▁서울방송	-12.6279
▁입김	-12.6281
▁희귀	-12.6287
좀	-12.6294
▁유물론	-12.6307
아이스	-12.631
▁떠밀	-12.6311
▁둥그	-12.6321
랙	-12.634
르륵	-12.634
▁노랫소리	-12.634
▁베토벤	-12.634
▁불현듯	-12.634
▁조미료	-12.634
▁조바심	-12.634
▁두툼	-12.6341
▁핀잔	-12.6341
▁여의주	-12.6342
졌지만	-12.6346
▁뿌린	-12.6347
▁흉내내	-12.6348
▁기다림	-12.6349
▁이원명	-12.6349
▁능숙	-12.635
▁어져서	-12.635
▁논밭	-12.6351
▁낙타	-12.6352
ture	-12.6354
▁매너	-12.6365
one	-12.6365
외과	-12.6388
연구회	-12.6392
컥	-12.6421
넉	-12.6424
▁나폴레옹	-12.6424
▁더더욱	-12.6424
▁앉은뱅이	-12.6424
▁인슐린	-12.6424
렘	-12.6424
▁부정부패	-12.6424
▁깜빡	-12.6424
▁신석주	-12.6424
▁뉴튼	-12.6424
▁뉴우스	-12.6424
▁았으니까	-12.6425
▁현대건설	-12.6431
▁채찍	-12.6431
▁아름다움	-12.6431
▁부러워	-12.6431
▁탑승	-12.6431
▁어있는	-12.6444
▁촉발	-12.6445
▁변변	-12.6458
▁유토피아	-12.6508
▁여름방학	-12.6508
▁기성세대	-12.6508
▁경운기	-12.6508
▁공적자금	-12.6508
▁난데없	-12.6509
▁합리주의	-12.6509
▁셨는데	-12.6511
▁어수선	-12.6512
▁설움	-12.6516
▁헤어졌	-12.6519
▁그지없	-12.652
▁탄탄	-12.6522
▁낙태	-12.6522
▁민중문학	-12.6525
▁좌파	-12.6526
▁블루	-12.6527
게이트	-12.6533
▁어낸다	-12.654
ong	-12.6544
▁어버렸	-12.6546
연주회	-12.6559
붉	-12.6585
닦	-12.6589
▁우루과이	-12.6592
다큐멘터리	-12.6592
▁필연성	-12.6592
▁누군지	-12.6593
▁가느다	-12.6593
쇼핑몰	-12.6593
▁화이트	-12.6594
▁엑스포	-12.6595
▁분단국가	-12.6597
급속도	-12.6601
▁좌우익	-12.6601
▁쌍용	-12.6603
▁하락세	-12.6614
프레스	-12.6616
종사자	-12.6632
찡	-12.664
▁네놈	-12.6648
▁원주민	-12.6652
그램	-12.6667
뮤	-12.6676
헝	-12.6678
▁국무총리	-12.6678
▁말레이시아	-12.6678
▁자율신경	-12.6678
▁허겁지겁	-12.6678
▁열악한	-12.6678
▁재활용품	-12.668
▁멋대로	-12.6681
▁현대자동차	-12.6682
상품권	-12.6683
버튼	-12.6684
▁나지막	-12.6684
▁서대문	-12.6684
▁기어들	-12.6686
▁습격	-12.669
▁절충	-12.6692
▁향락	-12.6695
▁윤건	-12.6707
컷	-12.6733
레이션	-12.674
▁An	-12.6743
ion	-12.6744
▁백억원	-12.6763
▁붉은색	-12.6764
▁캘리포니아	-12.6764
프롤레타리아	-12.6764
▁비정상적	-12.6764
▁데이터베이스	-12.6764
▁빙그레	-12.6764
▁봉쇄	-12.6765
▁냉혹	-12.6766
▁리어카	-12.6766
▁첨예	-12.6767
사령부	-12.6767
▁삼성그룹	-12.6768
▁고급문화	-12.6771
▁굴레	-12.6786
▁EU	-12.6794
늘어지	-12.6805
사무국	-12.6815
▁도둑놈	-12.6842
▁블랙	-12.6851
▁낙동강	-12.6851
▁페인트	-12.6851
▁성차별	-12.6851
비둘기	-12.6851
▁한여름	-12.6851
▁민속씨름	-12.6851
비서실장	-12.6851
▁투덜거	-12.6852
▁비현실적	-12.6853
▁부사장	-12.6853
글라스	-12.6856
ran	-12.6857
▁밀어붙	-12.6857
▁둘러앉	-12.6857
IP	-12.686
▁외래어	-12.6863
▁퍼졌	-12.6864
▁망막	-12.6872
ace	-12.6885
▁늘어뜨	-12.6893
UR	-12.6911
▁허물어	-12.6921
▁비영리	-12.6938
▁마이너스	-12.6939
▁죄책감	-12.6939
▁포스트모던	-12.6939
▁기저귀	-12.6939
▁무소속	-12.6939
닷컴	-12.6939
보좌관	-12.6939
▁속마음	-12.6939
목걸이	-12.6939
▁GE	-12.6941
착륙	-12.6941
명예회장	-12.6944
▁납품	-12.6945
▁존립	-12.6946
▁궁금증	-12.6946
▁풍요로	-12.6953
▁그네들	-12.6957
소비재	-12.7025
▁휘파람	-12.7027
▁펄럭	-12.7027
▁개연성	-12.7028
▁급변	-12.7028
▁거미줄	-12.703
메이커	-12.703
▁랄까	-12.7032
▁원피스	-12.7034
▁느슨	-12.7034
▁근접	-12.7035
▁퍼뜨	-12.7035
▁배짱	-12.7036
▁긍지	-12.7036
▁시달려	-12.7037
▁익살	-12.705
쓰레기	-12.7055
긍	-12.7073
사이드	-12.7082
▁유통업	-12.7087
▁으셨다	-12.709
und	-12.7101
맴	-12.7116
잭	-12.7116
▁휴머니즘	-12.7116
▁일본제국주의	-12.7116
▁깜깜	-12.7116
ization	-12.7117
▁이리하여	-12.7117
▁김부식	-12.7117
▁링컨	-12.7117
정연씨	-12.7117
▁OEC	-12.7118
▁빨아들	-12.7118
▁중앙일보	-12.7118
▁버젓	-12.7119
교도관	-12.7119
gen	-12.712
▁놀라움	-12.7122
▁아동들	-12.7123
▁쳐들어	-12.7124
▁남북관계	-12.713
저께	-12.7143
▁핸드폰	-12.7207
디자이너	-12.7207
▁박찬호	-12.7207
▁달팽이	-12.7207
▁뚝뚝	-12.7207
▁바나나	-12.7207
▁아놓고	-12.7207
▁남대문	-12.7207
▁사립학교	-12.7208
ide	-12.7209
▁젓갈	-12.721
▁닥쳐	-12.7213
▁뉘우	-12.7214
▁납작	-12.7215
맑	-12.7215
▁공룡	-12.7216
▁눈치채	-12.722
end	-12.7261
뽑	-12.7274
▁신자유주의	-12.7297
▁오피스텔	-12.7297
▁텍사스	-12.7297
▁무차별	-12.7298
테이션	-12.7298
▁잔디밭	-12.7298
▁내던지	-12.7299
▁팬티	-12.7299
뮤직	-12.73
▁게나마	-12.7301
▁얹혀	-12.7301
▁종아리	-12.7302
▁존엄	-12.7302
▁웅변	-12.7302
▁낙후	-12.7305
▁의구심	-12.731
주기를	-12.733
▁재미없	-12.7362
US	-12.7388
▁고정관념	-12.7389
▁엉거주춤	-12.7389
페스티벌	-12.7389
갤러리	-12.7389
▁시카고	-12.7389
▁남조선	-12.739
▁반세기	-12.739
▁하숙집	-12.739
방정식	-12.739
▁스케줄	-12.739
▁스피커	-12.739
▁범람	-12.7391
▁낭패	-12.7392
▁환웅	-12.7395
▁유기체	-12.7395
▁옷가지	-12.7402
대리점	-12.7408
▁하염없	-12.741
▁워하는	-12.7412
계산기	-12.7426
q	-12.745
▁웠을	-12.7451
▁캠퍼스	-12.7482
▁연방정부	-12.7482
▁전년동기	-12.7482
▁김진봉	-12.7482
▁꽃다발	-12.7482
▁진통제	-12.7482
▁와이셔츠	-12.7482
▁상공부	-12.7482
▁빗줄기	-12.7482
▁빙빙	-12.7483
▁뿌듯	-12.7483
▁대량생산	-12.7483
▁등장인물	-12.7483
▁헐떡	-12.7483
▁부질없	-12.7483
▁장사꾼	-12.7484
▁예술작품	-12.7485
▁생명공학	-12.7487
▁었냐	-12.7488
▁팔뚝	-12.7489
▁하이퍼	-12.749
▁수업시간	-12.749
▁출렁	-12.749
▁AP	-12.7494
ness	-12.7505
▁점진적	-12.7534
ram	-12.7556
꽁무니	-12.7575
▁다람쥐	-12.7575
▁박창길	-12.7575
▁천영감	-12.7575
▁지석묘	-12.7575
▁에어컨	-12.7575
▁문제해결	-12.7576
▁내무부	-12.7577
▁획일적	-12.7577
▁겸허	-12.7578
탐험	-12.7579
▁과소비	-12.7579
▁제조업체	-12.758
▁괴로워	-12.758
▁동떨어	-12.7581
▁딸아이	-12.7582
▁피지배	-12.7583
▁저녁때	-12.7587
▁우주구조	-12.7587
▁중앙정부	-12.7588
CR	-12.7598
▁고있다	-12.7599
참나무	-12.7602
▁이질적	-12.7602
▁단편적	-12.7621
▁Pro	-12.7629
그쳐	-12.7637
갤	-12.767
▁슈퍼마켓	-12.767
▁핸드백	-12.767
▁갸웃거	-12.767
▁선입견	-12.767
▁무분별	-12.767
▁전염병	-12.767
▁베이컨	-12.767
▁빙긋	-12.767
▁설문조사	-12.767
회피하	-12.7671
▁외할머니	-12.7674
▁침몰	-12.7676
▁흑색	-12.7676
▁꿈틀거	-12.7676
▁샘물	-12.7681
삼켰	-12.7701
▁가부장적	-12.7712
▁피상적	-12.7718
빚	-12.7735
▁벌거벗	-12.7765
▁에피소드	-12.7765
샐	-12.7765
컨소시엄	-12.7765
▁청계천	-12.7765
펄쩍	-12.7765
▁부녀자	-12.7768
▁조선왕조	-12.7768
▁Al	-12.7769
▁냇물	-12.7769
▁좌측	-12.7772
게시판	-12.7772
▁노란색	-12.7773
▁결의안	-12.7776
▁어버리는	-12.7791
▁적대적	-12.7796
변증법	-12.7835
엑	-12.7857
▁빠짐없이	-12.7861
뷰	-12.7861
▁휘발유	-12.7861
▁동유럽	-12.7861
▁침팬지	-12.7861
▁포르노	-12.7861
▁주름살	-12.7861
▁씁쓸	-12.7861
▁컴컴	-12.7861
▁빗방울	-12.7861
▁았으므로	-12.7862
막대기	-12.7863
순이익	-12.7865
▁이력서	-12.7867
▁날뛰	-12.7867
▁숫제	-12.7871
▁쟁취	-12.7876
▁지은이	-12.7877
SA	-12.7902
ack	-12.7919
빽	-12.7958
▁뉴질랜드	-12.7958
▁제일제당	-12.7958
소프트	-12.7958
특파원	-12.7958
▁정주영	-12.7958
▁깃털	-12.7959
▁소나기	-12.7959
늠	-12.7976
륨	-12.8056
슐	-12.8056
꼼	-12.8356
렐	-12.8356
햄	-12.8458
넥	-12.8665
칵	-12.8877
샴	-12.8877
므	-12.8978
꽝	-12.8985
씀	-12.9082
멱	-12.9539
않	-12.9722
떤	-12.9748
덮	-12.9794
뷔	-13.0002
핍	-13.0007
샅	-13.0008
녁	-13.0495
늬	-13.0495
겔	-13.1559
둠	-13.1817
춧	-13.1988
뒹	-13.2135
걷	-13.2487
갖	-13.2708
탓	-13.2709
캄	-13.2746
늄	-13.2905
껑	-13.323
씁	-13.3397
슘	-13.3566
촛	-13.3738
꼭	-13.3743
밟	-13.3904
멕	-13.3914
렷	-13.4088
굉	-13.4088
젯	-13.446
흰	-13.4561
섞	-13.5261
씻	-13.5272
픔	-13.5636
딪	-13.6298
쩡	-13.6301
헨	-13.724
젝	-13.7243
멋	-13.7268
륭	-13.775
멤	-13.8012
촘	-13.8013
얌	-13.8558
…	-13.8702
럿	-13.8836
쁨	-13.9122
늙	-13.9228
삶	-13.9786
왜	-14.0368
찹	-14.0412
즌	-14.1102
뭐	-14.1665
볍	-14.179
둡	-14.1846
엥	-14.1869
곁	-14.2382
챔	-14.2686
탤	-14.2686
뒷	-14.2911
혐	-14.311
잊	-14.3149
훗	-14.4051
몇	-14.4852
낳	-14.4892
멩	-14.6222
눠	-14.6824
젊	-14.7075
툼	-14.8043
끊	-14.8274
겉	-14.9608
룹	-15.0694
잃	-15.1352
믿	-15.1353
릎	-15.2849
굳	-15.3346
짧	-15.3354
뮌	-15.41
얻	-15.5862
떻	-15.7173
걀	-15.7193
쨌	-15.9173
썹	-15.9192
튿	-15.9196
띄	-15.9206
팎	-16.1687
꽤	-16.425
옳	-16.4251
쩐	-16.5006
끙	-17.4525
옐	-17.4526
엾	-17.4527
꼿	-17.4528
뻣	-17.4529
캘	-17.453
얕	-17.4531
잿	-17.4532
섣	-17.4533
슭	-17.4534
췌	-17.4535
짊	-17.4536
읊	-17.4537
숟	-17.4538
뾰	-17.4539
밌	-17.454
꿇	-17.4541
뭣	-17.4542
귓	-17.4543
숱	-17.4544
찻	-17.4545
썽	-17.4546
늉	-17.4547
잦	-17.4548
왠	-17.4549
싣	-17.455
떳	-17.4551
넋	-17.4552
볶	-17.4553
갇	-17.4554
덟	-17.4555
휩	-17.4556
꽉	-17.4557
굵	-17.4558
흩	-17.4559
촬	-17.456
씌	-17.4561
깥	-17.4562
몹	-17.4563
엌	-17.4564
뭘	-17.4565
묶	-17.4566
왼	-17.4567
괜	-17.4568
뭔	-17.4569
펼	-17.457
훌	-17.4571
쫓	-17.4572
슷	-17.4573
싫	-17.4574
옮	-17.4575
훨	-17.4576
옛	-17.4577
첫	-17.4578
겪	-17.4579
밝	-17.4579
